{
  "version": "1.0",
  "truncation": null,
  "padding": null,
  "added_tokens": [
    {
      "id": 0,
      "content": "[UNK]",
      "single_word": false,
      "lstrip": false,
      "rstrip": false,
      "normalized": false,
      "special": true
    },
    {
      "id": 1,
      "content": "[PAD]",
      "single_word": false,
      "lstrip": false,
      "rstrip": false,
      "normalized": false,
      "special": true
    },
    {
      "id": 2,
      "content": "[BOS]",
      "single_word": false,
      "lstrip": false,
      "rstrip": false,
      "normalized": false,
      "special": true
    },
    {
      "id": 3,
      "content": "[EOS]",
      "single_word": false,
      "lstrip": false,
      "rstrip": false,
      "normalized": false,
      "special": true
    }
  ],
  "normalizer": {
    "type": "NFC"
  },
  "pre_tokenizer": {
    "type": "ByteLevel",
    "add_prefix_space": false,
    "trim_offsets": true,
    "use_regex": true
  },
  "post_processor": null,
  "decoder": {
    "type": "ByteLevel",
    "add_prefix_space": true,
    "trim_offsets": true,
    "use_regex": true
  },
  "model": {
    "type": "BPE",
    "dropout": null,
    "unk_token": "[UNK]",
    "continuing_subword_prefix": null,
    "end_of_word_suffix": null,
    "fuse_unk": false,
    "byte_fallback": false,
    "ignore_merges": false,
    "vocab": {
      "[UNK]": 0,
      "[PAD]": 1,
      "[BOS]": 2,
      "[EOS]": 3,
      "!": 4,
      "\"": 5,
      "#": 6,
      "$": 7,
      "%": 8,
      "&": 9,
      "'": 10,
      "(": 11,
      ")": 12,
      "*": 13,
      "+": 14,
      ",": 15,
      "-": 16,
      ".": 17,
      "/": 18,
      "0": 19,
      "1": 20,
      "2": 21,
      "3": 22,
      "4": 23,
      "5": 24,
      "6": 25,
      "7": 26,
      "8": 27,
      "9": 28,
      ":": 29,
      ";": 30,
      "<": 31,
      "=": 32,
      ">": 33,
      "?": 34,
      "@": 35,
      "A": 36,
      "B": 37,
      "C": 38,
      "D": 39,
      "E": 40,
      "F": 41,
      "G": 42,
      "H": 43,
      "I": 44,
      "J": 45,
      "K": 46,
      "L": 47,
      "M": 48,
      "N": 49,
      "O": 50,
      "P": 51,
      "Q": 52,
      "R": 53,
      "S": 54,
      "T": 55,
      "U": 56,
      "V": 57,
      "W": 58,
      "X": 59,
      "Y": 60,
      "Z": 61,
      "[": 62,
      "\\": 63,
      "]": 64,
      "^": 65,
      "_": 66,
      "`": 67,
      "a": 68,
      "b": 69,
      "c": 70,
      "d": 71,
      "e": 72,
      "f": 73,
      "g": 74,
      "h": 75,
      "i": 76,
      "j": 77,
      "k": 78,
      "l": 79,
      "m": 80,
      "n": 81,
      "o": 82,
      "p": 83,
      "q": 84,
      "r": 85,
      "s": 86,
      "t": 87,
      "u": 88,
      "v": 89,
      "w": 90,
      "x": 91,
      "y": 92,
      "z": 93,
      "{": 94,
      "|": 95,
      "}": 96,
      "~": 97,
      "¡": 98,
      "¢": 99,
      "£": 100,
      "¤": 101,
      "¥": 102,
      "¦": 103,
      "§": 104,
      "¨": 105,
      "©": 106,
      "ª": 107,
      "«": 108,
      "¬": 109,
      "®": 110,
      "¯": 111,
      "°": 112,
      "±": 113,
      "²": 114,
      "³": 115,
      "´": 116,
      "µ": 117,
      "¶": 118,
      "·": 119,
      "¸": 120,
      "¹": 121,
      "º": 122,
      "»": 123,
      "¼": 124,
      "½": 125,
      "¾": 126,
      "¿": 127,
      "À": 128,
      "Á": 129,
      "Â": 130,
      "Ã": 131,
      "Ä": 132,
      "Å": 133,
      "Æ": 134,
      "Ç": 135,
      "È": 136,
      "É": 137,
      "Ê": 138,
      "Ë": 139,
      "Ì": 140,
      "Í": 141,
      "Î": 142,
      "Ï": 143,
      "Ð": 144,
      "Ñ": 145,
      "Ò": 146,
      "Ó": 147,
      "Ô": 148,
      "Õ": 149,
      "Ö": 150,
      "×": 151,
      "Ø": 152,
      "Ù": 153,
      "Ú": 154,
      "Û": 155,
      "Ü": 156,
      "Ý": 157,
      "Þ": 158,
      "ß": 159,
      "à": 160,
      "á": 161,
      "â": 162,
      "ã": 163,
      "ä": 164,
      "å": 165,
      "æ": 166,
      "ç": 167,
      "è": 168,
      "é": 169,
      "ê": 170,
      "ë": 171,
      "ì": 172,
      "í": 173,
      "î": 174,
      "ï": 175,
      "ð": 176,
      "ñ": 177,
      "ò": 178,
      "ó": 179,
      "ô": 180,
      "õ": 181,
      "ö": 182,
      "÷": 183,
      "ø": 184,
      "ù": 185,
      "ú": 186,
      "û": 187,
      "ü": 188,
      "ý": 189,
      "þ": 190,
      "ÿ": 191,
      "Ā": 192,
      "ā": 193,
      "Ă": 194,
      "ă": 195,
      "Ą": 196,
      "ą": 197,
      "Ć": 198,
      "ć": 199,
      "Ĉ": 200,
      "ĉ": 201,
      "Ċ": 202,
      "ċ": 203,
      "Č": 204,
      "č": 205,
      "Ď": 206,
      "ď": 207,
      "Đ": 208,
      "đ": 209,
      "Ē": 210,
      "ē": 211,
      "Ĕ": 212,
      "ĕ": 213,
      "Ė": 214,
      "ė": 215,
      "Ę": 216,
      "ę": 217,
      "Ě": 218,
      "ě": 219,
      "Ĝ": 220,
      "ĝ": 221,
      "Ğ": 222,
      "ğ": 223,
      "Ġ": 224,
      "ġ": 225,
      "Ģ": 226,
      "ģ": 227,
      "Ĥ": 228,
      "ĥ": 229,
      "Ħ": 230,
      "ħ": 231,
      "Ĩ": 232,
      "ĩ": 233,
      "Ī": 234,
      "ī": 235,
      "Ĭ": 236,
      "ĭ": 237,
      "Į": 238,
      "į": 239,
      "İ": 240,
      "ı": 241,
      "Ĳ": 242,
      "ĳ": 243,
      "Ĵ": 244,
      "ĵ": 245,
      "Ķ": 246,
      "ķ": 247,
      "ĸ": 248,
      "Ĺ": 249,
      "ĺ": 250,
      "Ļ": 251,
      "ļ": 252,
      "Ľ": 253,
      "ľ": 254,
      "Ŀ": 255,
      "ŀ": 256,
      "Ł": 257,
      "ł": 258,
      "Ń": 259,
      "Ä±": 260,
      "ar": 261,
      "an": 262,
      "er": 263,
      "Ã¼": 264,
      "in": 265,
      "ÅŁ": 266,
      "Ġb": 267,
      "en": 268,
      "Ä±n": 269,
      "il": 270,
      "ir": 271,
      "al": 272,
      "Ã§": 273,
      "Ġk": 274,
      "ÄŁ": 275,
      "lar": 276,
      "ak": 277,
      "Ġy": 278,
      "Ġs": 279,
      "Ġd": 280,
      "Ã¶": 281,
      "ol": 282,
      "el": 283,
      "Ġv": 284,
      "on": 285,
      "ay": 286,
      "as": 287,
      "et": 288,
      "Ġt": 289,
      "Ġg": 290,
      "es": 291,
      "ek": 292,
      "un": 293,
      "da": 294,
      "Ġve": 295,
      "is": 296,
      "ler": 297,
      "ik": 298,
      "at": 299,
      "ĠA": 300,
      "am": 301,
      "or": 302,
      "Ä±r": 303,
      "Ġ1": 304,
      "de": 305,
      "ĠB": 306,
      "Ä±l": 307,
      "ur": 308,
      "Ġbir": 309,
      "ad": 310,
      "le": 311,
      "iy": 312,
      "ĠS": 313,
      "aÅŁ": 314,
      "ul": 315,
      "Ġm": 316,
      "ĠM": 317,
      "ĠK": 318,
      "im": 319,
      "Ġ(": 320,
      "ĠT": 321,
      "ed": 322,
      "it": 323,
      "Ã¼r": 324,
      "em": 325,
      "Ġ2": 326,
      "Ä±ÅŁ": 327,
      "Ġol": 328,
      "iÅŁ": 329,
      "Ġh": 330,
      "Ã¼n": 331,
      "Ġo": 332,
      "Ġf": 333,
      "lÄ±": 334,
      "Ġil": 335,
      "Ä±nda": 336,
      "az": 337,
      "ĠÃ§": 338,
      "'d": 339,
      "ah": 340,
      "ĠD": 341,
      "ap": 342,
      "Ä°": 343,
      "lan": 344,
      "aÄŁ": 345,
      "Ġal": 346,
      "us": 347,
      "larÄ±": 348,
      "li": 349,
      "ey": 350,
      "ĠH": 351,
      "Ġ19": 352,
      "ev": 353,
      "iz": 354,
      "ĠP": 355,
      "ya": 356,
      "ĠÃ¶": 357,
      "ĠC": 358,
      "Ä±m": 359,
      "ĠE": 360,
      "ĠĊ": 361,
      "00": 362,
      "ĠG": 363,
      "Ġp": 364,
      "um": 365,
      "dan": 366,
      "di": 367,
      "ab": 368,
      "Ġi": 369,
      "inde": 370,
      "ĠÄ°": 371,
      "asÄ±": 372,
      "Ä±k": 373,
      "Ã¼m": 374,
      "ut": 375,
      "Ã¼z": 376,
      "leri": 377,
      "ine": 378,
      "ro": 379,
      "dÄ±": 380,
      "Ã¶r": 381,
      "ĠF": 382,
      "esi": 383,
      "eri": 384,
      "ac": 385,
      "Ã¼k": 386,
      "ist": 387,
      "ĠÃ": 388,
      "du": 389,
      "tÄ±": 390,
      "af": 391,
      "ĠO": 392,
      "ĠY": 393,
      "ĠÅŁ": 394,
      "la": 395,
      "ĠR": 396,
      "ĠL": 397,
      "âĢ": 398,
      "st": 399,
      "ĠyÄ±l": 400,
      "oÄŁ": 401,
      "ini": 402,
      "ilm": 403,
      "om": 404,
      "cu": 405,
      "Ġar": 406,
      "ĠiÃ§": 407,
      "ti": 408,
      "aÃ§": 409,
      "Ã¼l": 410,
      "av": 411,
      "Ġtar": 412,
      "larak": 413,
      "19": 414,
      "ok": 415,
      "Ä±nÄ±": 416,
      "ez": 417,
      "den": 418,
      "tÄ±r": 419,
      "Ġolarak": 420,
      "lu": 421,
      "Ä±s": 422,
      "Ġde": 423,
      "=\"": 424,
      "Ä±ndan": 425,
      "tir": 426,
      "Ġn": 427,
      "Ġyap": 428,
      "ĠN": 429,
      "Ġ-": 430,
      "Ġile": 431,
      "Ġson": 432,
      "ig": 433,
      "01": 434,
      "uÅŁ": 435,
      "op": 436,
      "Ã¶n": 437,
      "ic": 438,
      "dir": 439,
      "dÄ±r": 440,
      "ayn": 441,
      "ĠbaÅŁ": 442,
      "inin": 443,
      "os": 444,
      "Ġc": 445,
      "aki": 446,
      "Ä±na": 447,
      "ĠbaÄŁ": 448,
      "Ġan": 449,
      "uz": 450,
      "man": 451,
      "ce": 452,
      "ter": 453,
      "alar": 454,
      "Ġr": 455,
      "bol": 456,
      "eÅŁ": 457,
      "ĠgÃ¶r": 458,
      "ÄŁi": 459,
      "ĠiÃ§in": 460,
      "eÃ§": 461,
      "Ġ\"": 462,
      "lam": 463,
      "isi": 464,
      "mÄ±ÅŁ": 465,
      "Ġkar": 466,
      "lik": 467,
      "mak": 468,
      "Ä±nÄ±n": 469,
      "ra": 470,
      "ÄŁÄ±": 471,
      "Ġet": 472,
      "iler": 473,
      "Ã¼y": 474,
      "Ġ3": 475,
      "ih": 476,
      "adÄ±": 477,
      "Ã¼rk": 478,
      "te": 479,
      "Ġed": 480,
      "Ã¶l": 481,
      "Ã§a": 482,
      "Ġ=": 483,
      "Ġbu": 484,
      "alÄ±": 485,
      "len": 486,
      "ark": 487,
      "ma": 488,
      "ip": 489,
      "utbol": 490,
      "ib": 491,
      "aynak": 492,
      "Ä±z": 493,
      "Åŀ": 494,
      "ta": 495,
      "up": 496,
      "Ġbul": 497,
      "yun": 498,
      "Ġolan": 499,
      "Ã¶z": 500,
      "eler": 501,
      "ĠJ": 502,
      "iÅŁtir": 503,
      "ca": 504,
      "Ġfutbol": 505,
      "ans": 506,
      "iye": 507,
      "Ġoldu": 508,
      "ĠV": 509,
      "Ġyer": 510,
      "ayÄ±": 511,
      "Ġda": 512,
      "Ġin": 513,
      "ĠI": 514,
      "Ġz": 515,
      "ekt": 516,
      "Ġ200": 517,
      "yon": 518,
      "Ġtaraf": 519,
      "eh": 520,
      "Ġ201": 521,
      "Ġ4": 522,
      "he": 523,
      "Kaynak": 524,
      "eki": 525,
      "ec": 526,
      "id": 527,
      "ers": 528,
      "eb": 529,
      "KaynakÃ§a": 530,
      "ĠÃ¶n": 531,
      "ĠdoÄŁ": 532,
      "âĢĻ": 533,
      "anÄ±": 534,
      "lem": 535,
      "Ġen": 536,
      "Ġgel": 537,
      "ĠW": 538,
      "ĠAn": 539,
      "erk": 540,
      "ĠyÄ±lÄ±nda": 541,
      "art": 542,
      "ĠÅŀ": 543,
      "ot": 544,
      "Ã¼ÅŁ": 545,
      "),": 546,
      "ign": 547,
      "ĠtarafÄ±ndan": 548,
      "uy": 549,
      "leÅŁ": 550,
      "Ġor": 551,
      "lÄ±k": 552,
      "iv": 553,
      "Ġis": 554,
      "let": 555,
      "aya": 556,
      "ĠU": 557,
      "Ġfutbolcu": 558,
      "Ã¶y": 559,
      "Ġkul": 560,
      "'t": 561,
      "asÄ±nda": 562,
      "Ġkur": 563,
      "aha": 564,
      "ĠTÃ¼rk": 565,
      "tur": 566,
      "ov": 567,
      "Ġ|": 568,
      "uk": 569,
      "Ġbulun": 570,
      "edir": 571,
      "tad": 572,
      "ĠĠ": 573,
      "eni": 574,
      "nin": 575,
      "Ġbil": 576,
      "ĠbÃ¶l": 577,
      "Ġalign": 578,
      "ĠAr": 579,
      "ĠAl": 580,
      "Ġik": 581,
      "Ġver": 582,
      "Ġkad": 583,
      "Ġsonra": 584,
      "ĠBu": 585,
      "ĠyaÅŁ": 586,
      "ÄŁu": 587,
      "Ġ5": 588,
      "Ġad": 589,
      "ĠbaÄŁlan": 590,
      "masÄ±": 591,
      "mÄ±ÅŁtÄ±r": 592,
      "re": 593,
      "ĠÃĩ": 594,
      "Ã¼yÃ¼k": 595,
      "tÄ±lar": 596,
      "gil": 597,
      "Ã¼Ã§": 598,
      "nÄ±n": 599,
      "larÄ±n": 600,
      "ci": 601,
      "Âł": 602,
      "mer": 603,
      "ub": 604,
      "tadÄ±r": 605,
      "Ġtarih": 606,
      "Ġkullan": 607,
      "sp": 608,
      "Ä±y": 609,
      "inden": 610,
      "ayan": 611,
      "Ãĩ": 612,
      "ilir": 613,
      "ĠÃĸ": 614,
      "cÄ±": 615,
      "Ġ6": 616,
      "Ġkal": 617,
      "ada": 618,
      "ch": 619,
      "if": 620,
      "Ġkon": 621,
      "Ġay": 622,
      "Ġel": 623,
      "Ġfilm": 624,
      "DÄ±ÅŁ": 625,
      "ĠbaÄŁlantÄ±lar": 626,
      "ef": 627,
      "cak": 628,
      "Ġyaz": 629,
      "ing": 630,
      "daki": 631,
      "tan": 632,
      "Ġoyun": 633,
      "Ġyar": 634,
      "ilen": 635,
      "ĠÃ§Ä±k": 636,
      "ĠdeÄŁ": 637,
      "Ġilk": 638,
      "|-": 639,
      "od": 640,
      "ĠsÃ¼r": 641,
      "Ġdaha": 642,
      "ĠdÃ¶n": 643,
      "akÄ±m": 644,
      "ki": 645,
      "unda": 646,
      "Ġ199": 647,
      "ĠBir": 648,
      "merik": 649,
      "ĠkaÃ§": 650,
      "ĠgeÃ§": 651,
      "iÄŁ": 652,
      "uÃ§": 653,
      "ĠÃ¼z": 654,
      "unu": 655,
      "Ġ7": 656,
      "og": 657,
      "Ġ18": 658,
      "aman": 659,
      "ibi": 660,
      "Ġ8": 661,
      "Ġtop": 662,
      "ĠiÅŁ": 663,
      "ĠâĢ": 664,
      "men": 665,
      "Ġsah": 666,
      "ĠyÃ¶n": 667,
      "200": 668,
      "laÅŁ": 669,
      "ĠÃ¼zer": 670,
      "Ä±lan": 671,
      "Ġ20": 672,
      "iyet": 673,
      "Ġolm": 674,
      "Ġise": 675,
      "tr": 676,
      "uÅŁtur": 677,
      "ildi": 678,
      "ne": 679,
      "ag": 680,
      "ĠbÃ¼yÃ¼k": 681,
      "Ġyay": 682,
      "Ġger": 683,
      "Ġsay": 684,
      "Ġbel": 685,
      "Ġon": 686,
      "Ä±sÄ±": 687,
      "rÄ±": 688,
      "ken": 689,
      "Ġ9": 690,
      "ĠfutbolcularÄ±": 691,
      "eleri": 692,
      "san": 693,
      "ri": 694,
      "cen": 695,
      "sel": 696,
      "ĠÃ§al": 697,
      "ran": 698,
      "20": 699,
      "iyle": 700,
      "Ġkat": 701,
      "me": 702,
      "ep": 703,
      "deki": 704,
      "Ã¢": 705,
      "span": 706,
      "umlu": 707,
      "ĠyÃ¼z": 708,
      "Ġl": 709,
      "th": 710,
      "Ä±ldÄ±": 711,
      "Ġken": 712,
      "Ġtek": 713,
      "est": 714,
      "Ã¶zÃ¼m": 715,
      "eden": 716,
      "ĠaÃ§": 717,
      "ektedir": 718,
      "center": 719,
      "maktadÄ±r": 720,
      "ĠgÃ¶": 721,
      "iyon": 722,
      "ĠbaÄŁlÄ±": 723,
      "Ġgen": 724,
      "rup": 725,
      "Ġas": 726,
      "ĠÃľ": 727,
      "Ã®": 728,
      "ĠÃ§alÄ±ÅŁ": 729,
      "und": 730,
      "Ġvar": 731,
      "Ġgibi": 732,
      "Ã¼s": 733,
      "ĠkarÅŁ": 734,
      "201": 735,
      "Ġat": 736,
      "ĠtakÄ±m": 737,
      "ÃĩÃ¶zÃ¼m": 738,
      "ack": 739,
      "dÃ¼r": 740,
      "esine": 741,
      "ĠÃ¶l": 742,
      "oy": 743,
      "avaÅŁ": 744,
      "Ġes": 745,
      "ladÄ±": 746,
      "ĠgÃ¼n": 747,
      "eli": 748,
      "ĠÃ§ok": 749,
      "Ã¼t": 750,
      "ren": 751,
      "Ġe": 752,
      "erkez": 753,
      "usu": 754,
      "met": 755,
      "evlet": 756,
      "Ġuz": 757,
      "tal": 758,
      "lerin": 759,
      "ĠEn": 760,
      "ĠdoÄŁumlu": 761,
      "eye": 762,
      "arkÄ±": 763,
      "ĠkiÅŁ": 764,
      "raf": 765,
      "gi": 766,
      "Ġzaman": 767,
      "ĠsÄ±r": 768,
      "ade": 769,
      "yn": 770,
      "Ġek": 771,
      "ft": 772,
      "dÃ¼": 773,
      "amp": 774,
      "arÄ±": 775,
      "rans": 776,
      "ob": 777,
      "Ġpar": 778,
      "Ġkadar": 779,
      "Ġveya": 780,
      "unun": 781,
      "Ġ198": 782,
      "ill": 783,
      "Ġpro": 784,
      "Ġist": 785,
      "ĠarasÄ±nda": 786,
      "Ã§e": 787,
      "ili": 788,
      "ĠÃ¶z": 789,
      "han": 790,
      "lÃ¼": 791,
      "esinde": 792,
      "Ã¼f": 793,
      "istan": 794,
      "ĠÄ°n": 795,
      "ĠAmerik": 796,
      "Ġalan": 797,
      "alarÄ±": 798,
      "asyon": 799,
      "oz": 800,
      "tÃ¼r": 801,
      "ama": 802,
      "ĠZ": 803,
      "aÄŁÄ±": 804,
      "der": 805,
      "Ġyak": 806,
      "iyor": 807,
      "imi": 808,
      "yle": 809,
      "dÃ¼l": 810,
      "liÄŁi": 811,
      "Ġof": 812,
      "iyat": 813,
      "ard": 814,
      "ster": 815,
      "ivers": 816,
      "Ġkurul": 817,
      "miÅŁtir": 818,
      "mas": 819,
      "Ġhal": 820,
      "si": 821,
      "Ġuy": 822,
      "uv": 823,
      "col": 824,
      "ara": 825,
      "Ġkaz": 826,
      "Ġ197": 827,
      "arak": 828,
      "oj": 829,
      "ĠAv": 830,
      "Ġtan": 831,
      "18": 832,
      "Ġst": 833,
      "Ġsahip": 834,
      "mek": 835,
      "Ä±lÄ±": 836,
      "larda": 837,
      "larÄ±nda": 838,
      "Ã§i": 839,
      "Ġak": 840,
      "yla": 841,
      "rÄ±ca": 842,
      "miÅŁ": 843,
      "ge": 844,
      "Ġden": 845,
      "lÄ±ÄŁÄ±": 846,
      "Ġsan": 847,
      "iversit": 848,
      "ram": 849,
      "Ġiki": 850,
      "ia": 851,
      "stan": 852,
      "ehir": 853,
      "Ġa": 854,
      "ileri": 855,
      "ĠseÃ§": 856,
      "199": 857,
      "ĠEr": 858,
      "Ġ10": 859,
      "left": 860,
      "ĠCh": 861,
      "ĠdÃ¶nem": 862,
      "larÄ±nÄ±n": 863,
      "ĠgÃ¶re": 864,
      "uh": 865,
      "Ġinsan": 866,
      "Ġcol": 867,
      "inci": 868,
      "Ġmerkez": 869,
      "Ã¼c": 870,
      "ion": 871,
      "iÄŁer": 872,
      "Ã¼nya": 873,
      "ow": 874,
      "ĠaldÄ±": 875,
      "ĠdÃ¼ÅŁ": 876,
      "ĠThe": 877,
      "kan": 878,
      "ket": 879,
      "Ġyeni": 880,
      "ĠdoÄŁumlular": 881,
      "ye": 882,
      "ellik": 883,
      "mektedir": 884,
      "ĠyÃ¼k": 885,
      "Ġcolspan": 886,
      "lara": 887,
      "ent": 888,
      "ĠyÃ¶net": 889,
      "dur": 890,
      "ĠgÃ¶rev": 891,
      "Ãĸ": 892,
      "gro": 893,
      "Ġw": 894,
      "atÄ±": 895,
      "ĠÄ°s": 896,
      "color": 897,
      "por": 898,
      "iÃ§": 899,
      "Ä±ndaki": 900,
      "back": 901,
      "Ġ+": 902,
      "Ġalt": 903,
      "bÃ¼m": 904,
      "Ġbirlik": 905,
      "iyas": 906,
      "yÄ±l": 907,
      "ĠdÃ¼z": 908,
      "ground": 909,
      "ust": 910,
      "oloj": 911,
      "ĠOr": 912,
      "na": 913,
      "yan": 914,
      "background": 915,
      "ĠÅŁek": 916,
      "Ġ196": 917,
      "bul": 918,
      "una": 919,
      "Ġev": 920,
      "Ġ15": 921,
      "Ġhay": 922,
      "Ġkazan": 923,
      "ĠgÃ¶ster": 924,
      "ĠTÃ¼rkiye": 925,
      "niversit": 926,
      "ĠolduÄŁu": 927,
      "ĠkÃ¶y": 928,
      "ĠÃ¶ÄŁ": 929,
      "ĠsayÄ±": 930,
      "Ġetti": 931,
      "ĠyÃ¼zyÄ±l": 932,
      "ret": 933,
      "Ġher": 934,
      "larÄ±nÄ±": 935,
      "stanbul": 936,
      "azÄ±": 937,
      "Ġ16": 938,
      "ĠadÄ±": 939,
      "Ġgir": 940,
      "ĠsaÄŁ": 941,
      "sa": 942,
      "ezon": 943,
      "van": 944,
      "Ġ||": 945,
      "Ġ12": 946,
      "ley": 947,
      "all": 948,
      "ĠbÃ¶lg": 949,
      "Ġdev": 950,
      "acak": 951,
      "Ã§ek": 952,
      "erek": 953,
      "ka": 954,
      ":#": 955,
      "ĠyayÄ±n": 956,
      "alÄ±k": 957,
      "edi": 958,
      "Ã¼p": 959,
      "ĠilÃ§": 960,
      "lerini": 961,
      "nde": 962,
      "ilmiÅŁtir": 963,
      "ĠKar": 964,
      "eg": 965,
      "ĠÅŁarkÄ±": 966,
      "Ġbas": 967,
      "mi": 968,
      "ĠÃ¼r": 969,
      "Ġmah": 970,
      "ĠPart": 971,
      "Ã¼nde": 972,
      "Ġyan": 973,
      "Ġ17": 974,
      "ast": 975,
      "Ġort": 976,
      "ĠDevlet": 977,
      "ĠtÃ¼r": 978,
      "TÃ¼rk": 979,
      "Ġkap": 980,
      "ĠâĢĵ": 981,
      "Ã©": 982,
      "ĠmÃ¼z": 983,
      "Ġder": 984,
      "Ä±yla": 985,
      "hur": 986,
      "ĠSt": 987,
      "Ġneden": 988,
      "ru": 989,
      "Ġyol": 990,
      "Ġtam": 991,
      "Ġbulunan": 992,
      "ral": 993,
      "ĠÃ¼l": 994,
      "lat": 995,
      "Ġdiz": 996,
      "ĠdiÄŁer": 997,
      "ĠAy": 998,
      "Ġoyuncu": 999,
      "ĠÄ°ngil": 1000,
      "maya": 1001,
      "ĠPar": 1002,
      "Ġhar": 1003,
      "Ġbelir": 1004,
      "ede": 1005,
      "ĠoluÅŁ": 1006,
      "ĠĊĊ": 1007,
      "Ġetk": 1008,
      "ÄŁini": 1009,
      "Ġtem": 1010,
      "Ġdur": 1011,
      "Ġthe": 1012,
      "ĠbÃ¶lÃ¼m": 1013,
      "ĠÃľniversit": 1014,
      "Ġbirlikte": 1015,
      "abilir": 1016,
      "Ġhak": 1017,
      "inal": 1018,
      "Ġser": 1019,
      "Ġayn": 1020,
      "Ġ14": 1021,
      "Ã¼Ã§Ã¼k": 1022,
      "ich": 1023,
      "Ġkom": 1024,
      "asÄ±na": 1025,
      "ĠSon": 1026,
      "eÅŁit": 1027,
      "ĠÃ§ek": 1028,
      "ten": 1029,
      "Ä±mÄ±": 1030,
      "malar": 1031,
      "ĠAk": 1032,
      "21": 1033,
      "sman": 1034,
      "Ġul": 1035,
      "Ġ13": 1036,
      "ĠalbÃ¼m": 1037,
      "umhur": 1038,
      "ide": 1039,
      "Ġtarihinde": 1040,
      "tÃ¼": 1041,
      "eyi": 1042,
      "ĠolduÄŁ": 1043,
      "ĠĠĠĠ": 1044,
      "se": 1045,
      "sek": 1046,
      "ĠyaptÄ±": 1047,
      "Son": 1048,
      "ant": 1049,
      "Ġ11": 1050,
      "nda": 1051,
      "Ġkab": 1052,
      "Ġkay": 1053,
      "Ġbak": 1054,
      "ĠBaÅŁ": 1055,
      "Ġstyle": 1056,
      "ampiyon": 1057,
      "Ġtel": 1058,
      "ĠPartisi": 1059,
      "ĠĊĠĊ": 1060,
      "198": 1061,
      "ĠkÄ±s": 1062,
      "Ġsezon": 1063,
      "Ġx": 1064,
      "ĠÃ¼Ã§": 1065,
      "km": 1066,
      "Ġoyn": 1067,
      "enin": 1068,
      "ĠkarÅŁÄ±": 1069,
      "lerde": 1070,
      "Ġ%": 1071,
      "ĠAlman": 1072,
      "indeki": 1073,
      "luk": 1074,
      "ht": 1075,
      "ĠmaÃ§": 1076,
      "Ġfaz": 1077,
      "ĠMar": 1078,
      "ew": 1079,
      "ell": 1080,
      "Ã¼st": 1081,
      "oc": 1082,
      "istem": 1083,
      "idth": 1084,
      "Ã¼fus": 1085,
      "ĠÃ¼y": 1086,
      "ĠtaÅŁ": 1087,
      "leÅŁik": 1088,
      "Ġmil": 1089,
      "ĠÃ¶nce": 1090,
      "alan": 1091,
      "ĠDÃ¼nya": 1092,
      "rik": 1093,
      "ĠÃ¶nem": 1094,
      "ece": 1095,
      "ĠaynÄ±": 1096,
      "orm": 1097,
      "ĠGen": 1098,
      "rupa": 1099,
      "ÄŁÄ±nÄ±": 1100,
      "ĠAd": 1101,
      "Ġ195": 1102,
      "lerinin": 1103,
      "ĊĊ": 1104,
      "rak": 1105,
      "Ġbo": 1106,
      "Ġfark": 1107,
      "Ä±lÄ±r": 1108,
      "nun": 1109,
      "ĠeÄŁ": 1110,
      "ĠFrans": 1111,
      "ĠEk": 1112,
      "ĠgerÃ§ek": 1113,
      "Ġit": 1114,
      "ĠKon": 1115,
      "leÅŁtir": 1116,
      "ĠÄ°stanbul": 1117,
      "lus": 1118,
      "ĠTop": 1119,
      "Ġkend": 1120,
      "ĠÃ¼lk": 1121,
      "Ġsiyas": 1122,
      "ĠkadÄ±n": 1123,
      "Ġmad": 1124,
      "Ġ194": 1125,
      "Ã¼nÃ¼": 1126,
      "ĠaÃ§Ä±k": 1127,
      "dar": 1128,
      "\"|": 1129,
      "diÄŁi": 1130,
      "âĢĵ": 1131,
      "Ġres": 1132,
      "mesi": 1133,
      "Ġya": 1134,
      "ĠiÃ§er": 1135,
      "ulu": 1136,
      "ber": 1137,
      "ellikle": 1138,
      "arp": 1139,
      "ĠdÃ¼zen": 1140,
      "son": 1141,
      "Bir": 1142,
      "Ġkit": 1143,
      "end": 1144,
      "larÄ±na": 1145,
      "ĠÅŁekil": 1146,
      "yal": 1147,
      "ocu": 1148,
      "ud": 1149,
      "yl": 1150,
      "lerinde": 1151,
      "ĠÃĸdÃ¼l": 1152,
      "ĠSan": 1153,
      "adan": 1154,
      "uzey": 1155,
      "ĠLig": 1156,
      "arat": 1157,
      "000": 1158,
      "ina": 1159,
      "Ġerk": 1160,
      "uc": 1161,
      "iyi": 1162,
      "Ġgelen": 1163,
      "ĠkÃ¼Ã§Ã¼k": 1164,
      "||": 1165,
      "ilik": 1166,
      "ĠÄ°l": 1167,
      "ĠbaÅŁladÄ±": 1168,
      "eti": 1169,
      "Ġancak": 1170,
      "ĠMart": 1171,
      "oÄŁu": 1172,
      "Ġcin": 1173,
      "lanan": 1174,
      "ĠkÃ¶": 1175,
      "smanlÄ±": 1176,
      "landÄ±": 1177,
      "nik": 1178,
      "bir": 1179,
      "ĠGÃ¼n": 1180,
      "ĠadlÄ±": 1181,
      "ĠÃľniversitesi": 1182,
      "ĠoluÅŁtur": 1183,
      "ĠRus": 1184,
      "Ġuyg": 1185,
      "Ġim": 1186,
      "lay": 1187,
      "sÄ±z": 1188,
      "ilmiÅŁ": 1189,
      "Ġgerek": 1190,
      "bet": 1191,
      "arih": 1192,
      "Ġbilin": 1193,
      "ĠLe": 1194,
      "esini": 1195,
      "landÄ±r": 1196,
      "ĠsavaÅŁ": 1197,
      "ayÄ±s": 1198,
      "ĠBr": 1199,
      "Ġsistem": 1200,
      "yi": 1201,
      "ĠÃ¼ret": 1202,
      "Ġeski": 1203,
      "orum": 1204,
      "ĠSavaÅŁ": 1205,
      "ĠaÅŁ": 1206,
      "oh": 1207,
      "Ä±ÅŁtÄ±r": 1208,
      "Ġok": 1209,
      "ug": 1210,
      "Ġli": 1211,
      "ĠAs": 1212,
      "Ġ.": 1213,
      "tik": 1214,
      "Ġam": 1215,
      "Ġmet": 1216,
      "ĠBirleÅŁik": 1217,
      "197": 1218,
      "cÃ¼": 1219,
      "ĠAÄŁ": 1220,
      "Al": 1221,
      "ĠkaÃ§tÄ±r": 1222,
      ").": 1223,
      "elik": 1224,
      "Ġaz": 1225,
      "Ġhem": 1226,
      "ort": 1227,
      "esinin": 1228,
      "Ä±lÄ±k": 1229,
      "ĠaÄŁ": 1230,
      "ĠÃ¶ÄŁren": 1231,
      "atik": 1232,
      "22": 1233,
      "ĠCumhur": 1234,
      "ker": 1235,
      "Ġlist": 1236,
      "Ġyet": 1237,
      "urg": 1238,
      "lere": 1239,
      "rub": 1240,
      "Ġfutbolcular": 1241,
      "lim": 1242,
      "ĠAvrupa": 1243,
      "ĠAb": 1244,
      "illÃ®": 1245,
      "ĠÃ¶nemli": 1246,
      "acÄ±": 1247,
      "Ġro": 1248,
      "Ġsal": 1249,
      "Ġtamam": 1250,
      "Ä±lmÄ±ÅŁtÄ±r": 1251,
      "and": 1252,
      "tar": 1253,
      "ĠsÃ¶z": 1254,
      "Ã§Ä±": 1255,
      "ĠdÄ±ÅŁ": 1256,
      "ecek": 1257,
      "Amerik": 1258,
      "ĠÃ¶r": 1259,
      "YaÅŁ": 1260,
      "ton": 1261,
      "liÄŁ": 1262,
      "ang": 1263,
      "ord": 1264,
      "ĠTem": 1265,
      "lendir": 1266,
      "ĠBel": 1267,
      "ost": 1268,
      "ĠilÃ§esine": 1269,
      "ĠÃ§ev": 1270,
      "ĠIn": 1271,
      "Ġdurum": 1272,
      "aÅŁtÄ±r": 1273,
      "ron": 1274,
      "lardan": 1275,
      "elen": 1276,
      "ĠPro": 1277,
      "ation": 1278,
      "mp": 1279,
      "raki": 1280,
      "ĠolduÄŁunu": 1281,
      "ĠtÃ¼m": 1282,
      "ĠÅŁekilde": 1283,
      "ĠKur": 1284,
      "her": 1285,
      "ĠÃĸz": 1286,
      "ĠyÃ¼ksek": 1287,
      "ue": 1288,
      "Ġnedir": 1289,
      "ĠÃ§Ä±kar": 1290,
      "Ġbiri": 1291,
      "ork": 1292,
      "lasÄ±": 1293,
      "ĠÃ¼st": 1294,
      "ĠkiÅŁi": 1295,
      "oÄŁraf": 1296,
      "ĠKas": 1297,
      "ĠÄ°ngiliz": 1298,
      "Ã§ok": 1299,
      "An": 1300,
      "10": 1301,
      "irket": 1302,
      "Ġand": 1303,
      "ĠHal": 1304,
      "Ġinsanlar": 1305,
      "ily": 1306,
      "vet": 1307,
      "ros": 1308,
      "zer": 1309,
      "ĠÅŁehir": 1310,
      "iran": 1311,
      "onya": 1312,
      "ĊĠ": 1313,
      "can": 1314,
      "ĠsÃ¶y": 1315,
      "asar": 1316,
      "arator": 1317,
      "ĠHaz": 1318,
      "Ġ193": 1319,
      "luÄŁu": 1320,
      "las": 1321,
      "ĠyapÄ±lan": 1322,
      "Ġerkek": 1323,
      "ern": 1324,
      "arasÄ±": 1325,
      "Ġayr": 1326,
      "Ġfilmler": 1327,
      "Ġsanat": 1328,
      "ĠÃ§arp": 1329,
      "olu": 1330,
      "ĠOsmanlÄ±": 1331,
      "ĠdeÄŁiÅŁ": 1332,
      "Ay": 1333,
      "Ä±lmÄ±ÅŁ": 1334,
      "17": 1335,
      "Ġben": 1336,
      "ĠÃ¼zere": 1337,
      "res": 1338,
      "Ã»": 1339,
      "Ġolmak": 1340,
      "Ġwidth": 1341,
      "larÄ±ndan": 1342,
      "lerine": 1343,
      "etir": 1344,
      "itim": 1345,
      "Ġkan": 1346,
      "ff": 1347,
      "ali": 1348,
      "gcolor": 1349,
      "Ġgrup": 1350,
      "ĠHer": 1351,
      "ĠiÃ§inde": 1352,
      "ektÃ¶r": 1353,
      "iÅŁk": 1354,
      "mÃ¼ÅŁ": 1355,
      "Ä±nÄ±r": 1356,
      "Ġdevam": 1357,
      "'s": 1358,
      "ĠAmerikalÄ±": 1359,
      "196": 1360,
      "ou": 1361,
      "ĠbazÄ±": 1362,
      "15": 1363,
      "Ġiz": 1364,
      "Ġgetir": 1365,
      "ĠÃ¶len": 1366,
      "Ġeder": 1367,
      "ie": 1368,
      "ĠBÃ¶l": 1369,
      "bgcolor": 1370,
      "lÄ±ÄŁ": 1371,
      "ĠTL": 1372,
      "ĠÃ§ocu": 1373,
      "Ã¼ne": 1374,
      "ucu": 1375,
      "aret": 1376,
      "Ġyazar": 1377,
      "ĠyaÅŁÄ±nda": 1378,
      "Ġdil": 1379,
      "sal": 1380,
      "25": 1381,
      "Ġilgil": 1382,
      "muz": 1383,
      "ĠÃ¶nc": 1384,
      "ĠMayÄ±s": 1385,
      "land": 1386,
      "isan": 1387,
      "Ġkabul": 1388,
      "onom": 1389,
      "alet": 1390,
      "ylÃ¼l": 1391,
      "ehr": 1392,
      "ĠAt": 1393,
      "dÄ±ndan": 1394,
      "meye": 1395,
      "23": 1396,
      "ĠCumhuriyet": 1397,
      "Ġtur": 1398,
      "eviz": 1399,
      "ĠhÃ¼k": 1400,
      "Ġtut": 1401,
      "gan": 1402,
      "eks": 1403,
      "ebilir": 1404,
      "ĠOcak": 1405,
      "ĠSh": 1406,
      "ert": 1407,
      "ĠÃ¼zerine": 1408,
      "lerinden": 1409,
      "ĠRom": 1410,
      "dÄ±ÄŁÄ±": 1411,
      "ĠiÅŁlem": 1412,
      "imleri": 1413,
      "Ġkez": 1414,
      "Ġbit": 1415,
      "Ã§iler": 1416,
      "ici": 1417,
      "unan": 1418,
      "ĠKup": 1419,
      "Ġter": 1420,
      "ĠBak": 1421,
      "kÄ±": 1422,
      "ĠKom": 1423,
      "alle": 1424,
      "ĠKasÄ±m": 1425,
      "Ġfazla": 1426,
      "Ġitib": 1427,
      "16": 1428,
      "ĠvardÄ±r": 1429,
      "tor": 1430,
      "ĠÃĸdÃ¼lÃ¼": 1431,
      "Ã¼v": 1432,
      "Ġanlam": 1433,
      "ana": 1434,
      "eor": 1435,
      "Ġmod": 1436,
      "Ġtoplam": 1437,
      "ĠyarÄ±ÅŁ": 1438,
      "ĠolmuÅŁtur": 1439,
      "..": 1440,
      "ĠEylÃ¼l": 1441,
      "ĠUlus": 1442,
      "ĠHar": 1443,
      "ĠparÃ§": 1444,
      "Ġdir": 1445,
      "ĠEkim": 1446,
      "Ġ:": 1447,
      "ĠII": 1448,
      "Ġ25": 1449,
      "ĠHaziran": 1450,
      "ĠbirÃ§ok": 1451,
      "YaÅŁayan": 1452,
      "ĠKral": 1453,
      "ustos": 1454,
      "Ar": 1455,
      "Ġdevlet": 1456,
      "ÄŁÃ¼": 1457,
      "ĠÃ¶lenler": 1458,
      "ĠDevletleri": 1459,
      "ulan": 1460,
      "ens": 1461,
      "ĠalÄ±n": 1462,
      "Ġsor": 1463,
      "ĠAB": 1464,
      "ĠbaÅŁar": 1465,
      "our": 1466,
      "layan": 1467,
      "dÄ±m": 1468,
      "eket": 1469,
      "ĠÃ§eÅŁit": 1470,
      "Ġsiyaset": 1471,
      "Ġsat": 1472,
      "Ä±nÄ±z": 1473,
      "Ä±yor": 1474,
      "ale": 1475,
      "ĠBil": 1476,
      "Ġrol": 1477,
      "Ġuzak": 1478,
      "kanÄ±": 1479,
      "Ġeden": 1480,
      "Ġgenel": 1481,
      "gis": 1482,
      "olog": 1483,
      "âĢĿ": 1484,
      "yet": 1485,
      "Ġiyi": 1486,
      "ĠÅŀampiyon": 1487,
      "Ã¼ltÃ¼r": 1488,
      "ĠÅŁirket": 1489,
      "ĠEl": 1490,
      "ĠSavaÅŁÄ±": 1491,
      "ĠyaklaÅŁ": 1492,
      "ĠTemmuz": 1493,
      "14": 1494,
      "ĠToplam": 1495,
      "ĠmillÃ®": 1496,
      "evizyon": 1497,
      "Ã¼b": 1498,
      "ĠgÃ¶z": 1499,
      "ift": 1500,
      "ari": 1501,
      "lararasÄ±": 1502,
      "ĠgÃ¼Ã§": 1503,
      "kara": 1504,
      "gel": 1505,
      "ĠNisan": 1506,
      "30": 1507,
      "muÅŁtur": 1508,
      "ĠOyun": 1509,
      "ĠAmerika": 1510,
      "Ġdol": 1511,
      "Ã¼dÃ¼r": 1512,
      "ubat": 1513,
      "tu": 1514,
      "gram": 1515,
      "tiv": 1516,
      "ni": 1517,
      "Ġuzun": 1518,
      "Ġkol": 1519,
      "lin": 1520,
      "izm": 1521,
      "ĠardÄ±ndan": 1522,
      "yo": 1523,
      "ĠAÄŁustos": 1524,
      "12": 1525,
      "ĠgÃ¶rÃ¼n": 1526,
      "Ġikinci": 1527,
      "=\"#": 1528,
      "ry": 1529,
      "Ä°n": 1530,
      "aat": 1531,
      "dae": 1532,
      "ĠAralÄ±k": 1533,
      "ĠdÃ¼ÅŁÃ¼n": 1534,
      "Tarih": 1535,
      "Ġgeri": 1536,
      "Ġsin": 1537,
      "yalÄ±": 1538,
      "adece": 1539,
      "ĠâĢľ": 1540,
      "ire": 1541,
      "eme": 1542,
      "ĠAm": 1543,
      "ika": 1544,
      "sk": 1545,
      "lak": 1546,
      "ĠfarklÄ±": 1547,
      "áĥ": 1548,
      "Ã¼nÃ¼n": 1549,
      "efer": 1550,
      "fer": 1551,
      "ind": 1552,
      "ograf": 1553,
      "ore": 1554,
      "ĠyardÄ±m": 1555,
      "enler": 1556,
      "ime": 1557,
      "Ġkariy": 1558,
      "ĠsÄ±rasÄ±nda": 1559,
      "Ġboyun": 1560,
      "Ġilgili": 1561,
      "Ġpol": 1562,
      "siz": 1563,
      "ĠmÃ¼zik": 1564,
      "ĠKupasÄ±": 1565,
      "AyrÄ±ca": 1566,
      "Ġgrub": 1567,
      "ĠTh": 1568,
      "ĠÃ¼zerinde": 1569,
      "aber": 1570,
      "tern": 1571,
      "rist": 1572,
      "ĠMil": 1573,
      "ĠAf": 1574,
      "Ġedildi": 1575,
      "ĠgeÃ§ir": 1576,
      "Ġ24": 1577,
      "ĠkÄ±z": 1578,
      "Ġfor": 1579,
      "Ġkarak": 1580,
      "ava": 1581,
      "ĠKal": 1582,
      "Ġitibar": 1583,
      "Ġ'": 1584,
      "Ä±t": 1585,
      "tif": 1586,
      "ian": 1587,
      "Ġkendi": 1588,
      "aydÄ±": 1589,
      "ĠyakÄ±n": 1590,
      "ĠBey": 1591,
      "ĠeÅŁ": 1592,
      "ĠNew": 1593,
      "ĠÄ°tal": 1594,
      "ĠABD": 1595,
      "Ġ30": 1596,
      "sil": 1597,
      "Ġbin": 1598,
      "imler": 1599,
      "lÃ¼k": 1600,
      "Ġfilmleri": 1601,
      "ĠiliÅŁk": 1602,
      "ĠuÃ§": 1603,
      "br": 1604,
      "anÄ±n": 1605,
      "ĠÃ¼n": 1606,
      "Ġsil": 1607,
      "duÄŁu": 1608,
      "osyal": 1609,
      "Ġzor": 1610,
      "ĠyaÅŁam": 1611,
      "ĠAyrÄ±ca": 1612,
      "per": 1613,
      "ĠKan": 1614,
      "ĠÅŀubat": 1615,
      "amily": 1616,
      "Ġ2010": 1617,
      "mparator": 1618,
      "Ä±lÄ±m": 1619,
      "isinde": 1620,
      "azet": 1621,
      "ĠÃ¶zel": 1622,
      "ond": 1623,
      "Ġkes": 1624,
      "Ġtes": 1625,
      "rar": 1626,
      "Ġark": 1627,
      "oloji": 1628,
      "lama": 1629,
      "ish": 1630,
      "ĠalÄ±r": 1631,
      "ĠtanÄ±m": 1632,
      "ĠdoÄŁru": 1633,
      "Ġmahalle": 1634,
      "ĠFransÄ±z": 1635,
      "ova": 1636,
      "anan": 1637,
      "ĠMan": 1638,
      "Ġgit": 1639,
      "Ġer": 1640,
      "izmet": 1641,
      "lo": 1642,
      "Ġtab": 1643,
      "Ä±sÄ±nÄ±": 1644,
      "ĠtakÄ±mÄ±": 1645,
      "ĠsÄ±nÄ±r": 1646,
      "195": 1647,
      "24": 1648,
      "Ġduy": 1649,
      "ĠSonuÃ§": 1650,
      "ĠDem": 1651,
      "ĠÄ°mparator": 1652,
      "ĠdeÄŁil": 1653,
      "ĠdÃ¶r": 1654,
      "asa": 1655,
      "eniz": 1656,
      "Ġsev": 1657,
      "ĠgeliÅŁtir": 1658,
      "Ġtah": 1659,
      "lenen": 1660,
      "oÅŁ": 1661,
      "Ġsu": 1662,
      "Ġ21": 1663,
      "fes": 1664,
      "akat": 1665,
      "arÄ±ÅŁ": 1666,
      "Ġkitap": 1667,
      "Ġfinal": 1668,
      "Ã¶k": 1669,
      "Ġey": 1670,
      "ĠBur": 1671,
      "Ġtarihi": 1672,
      "ĠFilm": 1673,
      "Ġkurulan": 1674,
      "Ġortaya": 1675,
      "ĠulaÅŁ": 1676,
      "tem": 1677,
      "ĠbakÄ±nÄ±z": 1678,
      "estek": 1679,
      "Ġdah": 1680,
      "66": 1681,
      "Ä±p": 1682,
      "Ġgur": 1683,
      "oÄŁun": 1684,
      "sh": 1685,
      "Ġyapmak": 1686,
      "gin": 1687,
      "ĠKat": 1688,
      "med": 1689,
      "okr": 1690,
      "muÅŁ": 1691,
      "Ġdef": 1692,
      "28": 1693,
      "Ã¼sÃ¼": 1694,
      "inc": 1695,
      "ĠsayÄ±sÄ±": 1696,
      "Ġnedeniyle": 1697,
      "Ġail": 1698,
      "oÄŁlu": 1699,
      "asÄ±nÄ±n": 1700,
      "Ġyeniden": 1701,
      "undan": 1702,
      "itesi": 1703,
      "ach": 1704,
      "33": 1705,
      "deÅŁ": 1706,
      "uvvet": 1707,
      "abil": 1708,
      "Ġsadece": 1709,
      "Ġkarar": 1710,
      "Ġhat": 1711,
      "asÄ±ndaki": 1712,
      "Ġem": 1713,
      "io": 1714,
      "Ġyok": 1715,
      "ĠÃ§ocuk": 1716,
      "Ġhakk": 1717,
      "Ġgurbet": 1718,
      "eÄŁ": 1719,
      "ĠnÃ¼fus": 1720,
      "Ġolup": 1721,
      "ilerin": 1722,
      "ĠPol": 1723,
      "masÄ±na": 1724,
      "ĠAncak": 1725,
      "alya": 1726,
      "ĠÃ§eÅŁitli": 1727,
      "ĠkullanÄ±l": 1728,
      "ser": 1729,
      "baÅŁ": 1730,
      "ĠParti": 1731,
      "orn": 1732,
      "Ã¼mÃ¼z": 1733,
      "Ġ&": 1734,
      "ediy": 1735,
      "ver": 1736,
      "gÃ¼n": 1737,
      "ĠBÃ¼yÃ¼k": 1738,
      "ĠyerleÅŁ": 1739,
      "ĠHan": 1740,
      "Ã¼ncÃ¼": 1741,
      "13": 1742,
      "masÄ±nÄ±": 1743,
      "ĠsaldÄ±r": 1744,
      "aj": 1745,
      "leme": 1746,
      "Ġboyunca": 1747,
      "Ġ2012": 1748,
      "Ġeser": 1749,
      "ohn": 1750,
      "Ġ2011": 1751,
      "Ġilinin": 1752,
      "int": 1753,
      "ĠyÄ±llarÄ±": 1754,
      "ĠsÄ±": 1755,
      "Ġdestek": 1756,
      "larla": 1757,
      "Ġses": 1758,
      "isyon": 1759,
      "eral": 1760,
      "Ġ?": 1761,
      "Ġ2009": 1762,
      "ĠÐ": 1763,
      "ĠgÃ¶rÃ¼l": 1764,
      "malarÄ±": 1765,
      "enk": 1766,
      "sak": 1767,
      "illi": 1768,
      "Ġhayvan": 1769,
      "Ġmuh": 1770,
      "ĠyÄ±lÄ±": 1771,
      "Ġot": 1772,
      "adÄ±ÄŁÄ±": 1773,
      "Ġulus": 1774,
      "mir": 1775,
      "aba": 1776,
      "Ġteknik": 1777,
      "Ġ26": 1778,
      "Ġasker": 1779,
      "Ġ23": 1780,
      "Ä±sÄ±nda": 1781,
      "Ã¼mÃ¼": 1782,
      "194": 1783,
      "ĠTr": 1784,
      "ilmesi": 1785,
      "deb": 1786,
      "Ġmak": 1787,
      "asÄ±nÄ±": 1788,
      "ĠDaha": 1789,
      "ite": 1790,
      "tere": 1791,
      "iya": 1792,
      "Ġada": 1793,
      "ideo": 1794,
      "Ġkaynak": 1795,
      "Ġtelevizyon": 1796,
      "aw": 1797,
      "Ġart": 1798,
      "ong": 1799,
      "ema": 1800,
      "ĠdeÄŁer": 1801,
      "Sonraki": 1802,
      "Ġbilim": 1803,
      "ij": 1804,
      "ĠbulunmaktadÄ±r": 1805,
      "Ġzamanda": 1806,
      "Ġroman": 1807,
      "ĠCar": 1808,
      "Ġprogram": 1809,
      "Ä±rak": 1810,
      "ĠgeliÅŁ": 1811,
      "ĠgÃ¶n": 1812,
      "limp": 1813,
      "Ġyen": 1814,
      "ayÄ±n": 1815,
      "Ġhareket": 1816,
      "Ġkarakter": 1817,
      "Ġ2008": 1818,
      "of": 1819,
      "ĠSp": 1820,
      "Ġ22": 1821,
      "ĠeÄŁitim": 1822,
      "TÃ¼rkiye": 1823,
      "dÄ±k": 1824,
      "gÄ±": 1825,
      "lerden": 1826,
      "Ġsonr": 1827,
      "luÄŁ": 1828,
      "ĠhÄ±z": 1829,
      "azÄ±r": 1830,
      "mam": 1831,
      "ĠÃ¶dÃ¼l": 1832,
      "Ġsen": 1833,
      "Ã¼ven": 1834,
      "ĠKad": 1835,
      "Ġ28": 1836,
      "Ġ0": 1837,
      "Ġdahil": 1838,
      "ovyet": 1839,
      "ace": 1840,
      "ĠÄ°yi": 1841,
      "Ġmez": 1842,
      "eyen": 1843,
      "Ã¶yle": 1844,
      "aÅŁa": 1845,
      "ĠMuh": 1846,
      "Ġ27": 1847,
      "ĠyayÄ±m": 1848,
      "ĠÃ¶ldÃ¼r": 1849,
      "ha": 1850,
      "tiÄŁi": 1851,
      "ĠaraÅŁtÄ±r": 1852,
      "Ġhayat": 1853,
      "Ġspor": 1854,
      "Ã»met": 1855,
      "arb": 1856,
      "FA": 1857,
      "\",": 1858,
      "Ġtopl": 1859,
      "qu": 1860,
      "Ġhizmet": 1861,
      "laÅŁtÄ±r": 1862,
      "ĠPr": 1863,
      "Ġ2007": 1864,
      "Ġcan": 1865,
      "Ã¡": 1866,
      "Ġedilen": 1867,
      "NÃ¼fus": 1868,
      "iydi": 1869,
      "ilmektedir": 1870,
      "ize": 1871,
      "itik": 1872,
      "Ġbur": 1873,
      "Ä±nÄ±f": 1874,
      "ele": 1875,
      "ĠbÄ±rak": 1876,
      "ĠartÄ±": 1877,
      "ga": 1878,
      "ĠyaklaÅŁÄ±k": 1879,
      "tÄ±ÄŁÄ±": 1880,
      "ĠX": 1881,
      "style": 1882,
      "ĠdÃ¼n": 1883,
      "Ġtak": 1884,
      "Ġ/": 1885,
      "SonuÃ§": 1886,
      "det": 1887,
      "ĠOlimp": 1888,
      "ĠsÃ¼re": 1889,
      "uÄŁ": 1890,
      "11": 1891,
      "Ġhas": 1892,
      "Ġhalk": 1893,
      "ĠJap": 1894,
      "Ġhan": 1895,
      "Ġsefer": 1896,
      "Ä±msÄ±z": 1897,
      "Ġisim": 1898,
      "maz": 1899,
      "Ġ2006": 1900,
      "les": 1901,
      "ĠGÃ¼ney": 1902,
      "udi": 1903,
      "ski": 1904,
      "ĠMÃ¼z": 1905,
      "Ġmerkezine": 1906,
      "Ġplan": 1907,
      "ĠGenel": 1908,
      "ĠAnkara": 1909,
      "ĠgeniÅŁ": 1910,
      "Ã¼nden": 1911,
      "ĠFran": 1912,
      "Ä±lmasÄ±": 1913,
      "Ġ2014": 1914,
      "Ð°": 1915,
      "iss": 1916,
      "ĠyapÄ±m": 1917,
      "cÄ±sÄ±": 1918,
      "ate": 1919,
      "Bu": 1920,
      "kÃ¼": 1921,
      "cek": 1922,
      "Ã¼fusu": 1923,
      "Ġfamily": 1924,
      "vek": 1925,
      "sam": 1926,
      "ĠyÃ¼zyÄ±lda": 1927,
      "ank": 1928,
      "esinden": 1929,
      "emi": 1930,
      "isinin": 1931,
      "tin": 1932,
      "mÃ¼ÅŁtÃ¼r": 1933,
      "dik": 1934,
      "ĠGÃ¼r": 1935,
      "Ġyerine": 1936,
      "ĠGal": 1937,
      "aktadÄ±r": 1938,
      "ĠâĢĶ": 1939,
      "Ġtasar": 1940,
      "ĠYunan": 1941,
      "gen": 1942,
      "ĠsÄ±k": 1943,
      "Ġ2013": 1944,
      "Ġpay": 1945,
      "ĠÅŁehr": 1946,
      "Ãľ": 1947,
      "ĠDer": 1948,
      "esel": 1949,
      "ĠinÅŁ": 1950,
      "ĠoÄŁ": 1951,
      "Ġmev": 1952,
      "esiyle": 1953,
      "anÄ±t": 1954,
      "yum": 1955,
      "ĠyaptÄ±ÄŁÄ±": 1956,
      "uluk": 1957,
      "ketbol": 1958,
      "ĠÅŁarkÄ±cÄ±": 1959,
      "ĠÄ°lk": 1960,
      "ĠAh": 1961,
      "ae": 1962,
      "bay": 1963,
      "ars": 1964,
      "Ġdok": 1965,
      "dam": 1966,
      "gÄ±n": 1967,
      "gu": 1968,
      "veÃ§": 1969,
      "Ä°ÅŁ": 1970,
      "Ġonun": 1971,
      "Ġuygul": 1972,
      "mayÄ±": 1973,
      "ĠOk": 1974,
      "yÄ±": 1975,
      "cel": 1976,
      "ĠOlimpiyat": 1977,
      "Ġistiyor": 1978,
      "AmerikalÄ±": 1979,
      "adem": 1980,
      "avun": 1981,
      "osu": 1982,
      "iyatro": 1983,
      "trol": 1984,
      "Ġ2015": 1985,
      "ĠkayÄ±": 1986,
      "ith": 1987,
      "ehri": 1988,
      "ĠTur": 1989,
      "anlar": 1990,
      "ĠhazÄ±r": 1991,
      "kaÃ§": 1992,
      "eÅŁtir": 1993,
      "usunda": 1994,
      "ĠAlmanya": 1995,
      "Ġgeldi": 1996,
      "ĠHol": 1997,
      "evap": 1998,
      "ilis": 1999,
      "ph": 2000,
      "Ġkuzey": 2001,
      "ĠkÃ¼ltÃ¼r": 2002,
      "ĠsonuÃ§": 2003,
      "sik": 2004,
      "ĠYeni": 2005,
      "ĠgÃ¶nder": 2006,
      "alt": 2007,
      "siyon": 2008,
      "Ġhaf": 2009,
      "Ġ2005": 2010,
      "ince": 2011,
      "ĠSer": 2012,
      "Ġbulunur": 2013,
      "letvek": 2014,
      "min": 2015,
      "ĠanlaÅŁ": 2016,
      "TarihÃ§e": 2017,
      "lardÄ±r": 2018,
      "Ġkor": 2019,
      "Ã¼ler": 2020,
      "Ġgol": 2021,
      "Ġbulur": 2022,
      "Ġait": 2023,
      "27": 2024,
      "Ġgazet": 2025,
      "ĠCumhuriyeti": 2026,
      "rim": 2027,
      "ĠFransa": 2028,
      "ĠraÄŁ": 2029,
      "ĠaltÄ±nda": 2030,
      "Ġboy": 2031,
      "ĠBirliÄŁi": 2032,
      "ĠkÄ±sa": 2033,
      "ick": 2034,
      "Ġtemsil": 2035,
      "ledi": 2036,
      "urt": 2037,
      "abasÄ±": 2038,
      "ayar": 2039,
      "Ġyas": 2040,
      "ĠJohn": 2041,
      "Ġif": 2042,
      "ĠÃ¶lÃ¼m": 2043,
      "sun": 2044,
      "ĠraÄŁmen": 2045,
      "Ġdik": 2046,
      "Ã¼h": 2047,
      "26": 2048,
      "Ä±nd": 2049,
      "ĠdirektÃ¶r": 2050,
      "iÅŁim": 2051,
      "ĠdaÄŁ": 2052,
      "ĠkazandÄ±": 2053,
      "ĠbaÅŁkan": 2054,
      "Ġolur": 2055,
      "yor": 2056,
      "asyonu": 2057,
      "ont": 2058,
      "ĠnÃ¼fusu": 2059,
      "Ġ29": 2060,
      "elerin": 2061,
      "ĠAvus": 2062,
      "ĠuzaklÄ±k": 2063,
      "ĠAli": 2064,
      "ĠgerÃ§ekleÅŁtir": 2065,
      "ĠyapÄ±": 2066,
      "ĠyÃ¼ksel": 2067,
      "ĠÃ§evr": 2068,
      "Ġ2016": 2069,
      "Kar": 2070,
      "Ġkim": 2071,
      "Ã¼lt": 2072,
      "ĠYork": 2073,
      "ĠdÃ¶rt": 2074,
      "oÄŁrafya": 2075,
      "ve": 2076,
      "gar": 2077,
      "co": 2078,
      "lÃ¼m": 2079,
      "ekiz": 2080,
      "ĠolmasÄ±": 2081,
      "Ġana": 2082,
      "anda": 2083,
      "ĠMah": 2084,
      "ĠkarÅŁÄ±l": 2085,
      "ĠkÄ±r": 2086,
      "ĠbaÅŁka": 2087,
      "ĠbaÅŁlam": 2088,
      "ĠgÃ¼ney": 2089,
      "ĠCo": 2090,
      "lanmÄ±ÅŁtÄ±r": 2091,
      "Ġdem": 2092,
      "Ġdav": 2093,
      "Ġgenellikle": 2094,
      "ĠÃĹ": 2095,
      "50": 2096,
      "ĠÅŁey": 2097,
      "Ġdin": 2098,
      "isini": 2099,
      "Ġolduk": 2100,
      "ĠhiÃ§": 2101,
      "Ä°ngil": 2102,
      "isk": 2103,
      "Ä±cÄ±": 2104,
      "pr": 2105,
      "En": 2106,
      "Ġonu": 2107,
      "ĠhakkÄ±nda": 2108,
      "lor": 2109,
      "ĠKuzey": 2110,
      "ĠÅŁampiyon": 2111,
      "ĠsayÄ±sÄ±nÄ±": 2112,
      "spor": 2113,
      "tÄ±n": 2114,
      "ile": 2115,
      "ĠyÃ¼r": 2116,
      "ĠdÃ¶nÃ¼ÅŁ": 2117,
      "ice": 2118,
      "Ġama": 2119,
      "ĠSch": 2120,
      "lis": 2121,
      "rom": 2122,
      "ĠÃĩin": 2123,
      "Ġberi": 2124,
      "ĠayrÄ±ca": 2125,
      "cular": 2126,
      "omb": 2127,
      "pe": 2128,
      "Ġper": 2129,
      "align": 2130,
      "The": 2131,
      "ami": 2132,
      "ÄŁÄ±nda": 2133,
      "ary": 2134,
      "Ġ2017": 2135,
      "ĠYaz": 2136,
      "air": 2137,
      "sidir": 2138,
      "gisayar": 2139,
      "ĠUn": 2140,
      "Ġ2020": 2141,
      "ly": 2142,
      "Ġtekrar": 2143,
      "iyan": 2144,
      "ĠHalk": 2145,
      "Ġmilyon": 2146,
      "ĠdeÄŁiÅŁtir": 2147,
      "ĠMal": 2148,
      "Ġbelirt": 2149,
      "ĠDan": 2150,
      "uyla": 2151,
      "ĠĠĠĠĠĠĠĠ": 2152,
      "Ġid": 2153,
      "ĠSovyet": 2154,
      "ĠsÄ±nÄ±f": 2155,
      "ight": 2156,
      "ĠMerkez": 2157,
      "Or": 2158,
      "ĠÅŁark": 2159,
      "ÄŁin": 2160,
      "ĠkonuÅŁ": 2161,
      "isine": 2162,
      "ĠBer": 2163,
      "aban": 2164,
      "Ġmahall": 2165,
      "2010": 2166,
      "Ġmerkezi": 2167,
      "ĠÃ¶ÄŁret": 2168,
      "ĠeÅŁit": 2169,
      "Ġtip": 2170,
      "ĠEv": 2171,
      "lendi": 2172,
      "Ġnok": 2173,
      "Ġmal": 2174,
      "ĠkeÅŁ": 2175,
      "Er": 2176,
      "ĠgurbetÃ§i": 2177,
      "nek": 2178,
      "ĠÄ°ngiltere": 2179,
      "ĠAnd": 2180,
      "ĠMa": 2181,
      "ĠBas": 2182,
      "Ġ2004": 2183,
      "evi": 2184,
      "ĠsayÄ±larÄ±nÄ±n": 2185,
      "lk": 2186,
      "ĠPh": 2187,
      "Ġj": 2188,
      "Ġ2018": 2189,
      "ck": 2190,
      "istik": 2191,
      "ĠTek": 2192,
      "Ġun": 2193,
      "ĠSel": 2194,
      "ĠÅŀampiyonasÄ±": 2195,
      "ĠÄ°z": 2196,
      "Ġgal": 2197,
      "KÃ¶y": 2198,
      "ĠRes": 2199,
      "ĠoyuncularÄ±": 2200,
      "Ġetmek": 2201,
      "Ġav": 2202,
      "29": 2203,
      "ĠbirkaÃ§": 2204,
      "eda": 2205,
      "uan": 2206,
      "adaÅŁ": 2207,
      "ĠÄ°span": 2208,
      "dem": 2209,
      "Ġelde": 2210,
      "ediye": 2211,
      "els": 2212,
      "Ġdal": 2213,
      "ĠOn": 2214,
      "ĠiÅŁlemini": 2215,
      "Ġkr": 2216,
      "Ġdenk": 2217,
      "Ġolay": 2218,
      "ĠRusya": 2219,
      "ĠRe": 2220,
      "Ġkontrol": 2221,
      "Ġsahiptir": 2222,
      "Ġbuluruz": 2223,
      "olojik": 2224,
      "Ãĸr": 2225,
      "Ġsun": 2226,
      "ukuk": 2227,
      "Ä°ÅŁlem": 2228,
      "Ġ2000": 2229,
      "Frans": 2230,
      "din": 2231,
      "ĠarasÄ±ndaki": 2232,
      "Ġne": 2233,
      "Ġverdi": 2234,
      "bi": 2235,
      "Ġab": 2236,
      "ĠSa": 2237,
      "ĠÄ°ÅŁ": 2238,
      "Ġlistesi": 2239,
      "enn": 2240,
      "ĠgeÃ§en": 2241,
      "ĠkuÅŁ": 2242,
      "ĠadÄ±yla": 2243,
      "ĠhÃ¼kÃ»met": 2244,
      "landa": 2245,
      "uyor": 2246,
      "Ġelekt": 2247,
      "era": 2248,
      "Ġ40": 2249,
      "ĠseÃ§im": 2250,
      "Cevap": 2251,
      "ĠAmerikan": 2252,
      "lav": 2253,
      "ĠRoma": 2254,
      "ĠÃ§alÄ±ÅŁmalar": 2255,
      "ĠbeÅŁ": 2256,
      "eder": 2257,
      "CoÄŁrafya": 2258,
      "Ġeyalet": 2259,
      "Ã¼tÃ¼n": 2260,
      "ĠAfrik": 2261,
      "ĠQ": 2262,
      "for": 2263,
      "Ġkonu": 2264,
      "ekli": 2265,
      "fi": 2266,
      "rol": 2267,
      "Ã¼ntÃ¼": 2268,
      "ĠÃ§iz": 2269,
      "Ġseb": 2270,
      "ĠalmÄ±ÅŁtÄ±r": 2271,
      "ague": 2272,
      "ĠSanat": 2273,
      "Av": 2274,
      "Ġadam": 2275,
      "Ä±sÄ±r": 2276,
      "ĠÄ°mparatorluÄŁu": 2277,
      "este": 2278,
      "itan": 2279,
      "sÄ±": 2280,
      "Ġbilinen": 2281,
      "ĠkullanÄ±lan": 2282,
      "ĠMac": 2283,
      "ĠYah": 2284,
      "ĠBunun": 2285,
      "Ġtoprak": 2286,
      "ity": 2287,
      "Ġmilletvek": 2288,
      "Ġbey": 2289,
      "ĠDoÄŁu": 2290,
      "60": 2291,
      "lanmÄ±ÅŁ": 2292,
      "ĠkayÄ±t": 2293,
      "ock": 2294,
      "kÄ±n": 2295,
      "azi": 2296,
      "iyordu": 2297,
      "mem": 2298,
      "Ġ2019": 2299,
      "eci": 2300,
      "Ä±lÄ±ÄŁÄ±": 2301,
      "ĠaÄŁÄ±r": 2302,
      "Ġvideo": 2303,
      "Ġfilmi": 2304,
      "Ġili": 2305,
      "acaÄŁ": 2306,
      "ĠedilmiÅŁtir": 2307,
      "meni": 2308,
      "ĠDav": 2309,
      "ĠaltÄ±": 2310,
      "Ä±ÅŁÄ±": 2311,
      "lerle": 2312,
      "ĠYÄ±l": 2313,
      "ĠSal": 2314,
      "ĠEur": 2315,
      "Ġyapan": 2316,
      "Ġgelir": 2317,
      "ji": 2318,
      "Ġkent": 2319,
      "Ã¼cad": 2320,
      "ĠÄ°k": 2321,
      "ĠPaÅŁa": 2322,
      "Ġtemel": 2323,
      "Ġoy": 2324,
      "Ġdizi": 2325,
      "Ġber": 2326,
      "akÃ¼lt": 2327,
      "izik": 2328,
      "anlÄ±ÄŁÄ±": 2329,
      "ĠsÄ±rada": 2330,
      "Ä±lacak": 2331,
      "Ġhav": 2332,
      "Ġkalem": 2333,
      "Ġele": 2334,
      "Ð¾": 2335,
      "ĠoluÅŁan": 2336,
      "Ġmes": 2337,
      "ĠadlandÄ±r": 2338,
      "ĠBo": 2339,
      "ivil": 2340,
      "Ġolmayan": 2341,
      "Ġbah": 2342,
      "ĠLigi": 2343,
      "90": 2344,
      "ons": 2345,
      "ĠEd": 2346,
      "ĠkardeÅŁ": 2347,
      "ĠBe": 2348,
      "Ġdeniz": 2349,
      "ĠBar": 2350,
      "ĠboÅŁ": 2351,
      "ĠkatÄ±ldÄ±": 2352,
      "Ġekonom": 2353,
      "efon": 2354,
      "ĠBul": 2355,
      "ĠÃ§Ä±ktÄ±": 2356,
      "ĠLa": 2357,
      "Ġgiy": 2358,
      "ĠMeh": 2359,
      "isy": 2360,
      "78": 2361,
      "Ġ31": 2362,
      "dana": 2363,
      "Ġmey": 2364,
      "ĠÃ¶zellikle": 2365,
      "ĠÃ¶zellik": 2366,
      "Ġkav": 2367,
      "elerde": 2368,
      "ĠÃ¼yesi": 2369,
      "umu": 2370,
      "Ġimz": 2371,
      "ĠarkadaÅŁ": 2372,
      "ĠÃ¶lÃ§": 2373,
      "Ġfa": 2374,
      "ĠuzaklÄ±ktadÄ±r": 2375,
      "Ġsonunda": 2376,
      "burg": 2377,
      "Ġkomut": 2378,
      "Ġ50": 2379,
      "Ġbilgisayar": 2380,
      "ĠoÄŁlu": 2381,
      "ĠgÃ¼ven": 2382,
      "ĠDeniz": 2383,
      "ĠCom": 2384,
      "ung": 2385,
      "ĠSo": 2386,
      "II": 2387,
      "otor": 2388,
      "Ġ2002": 2389,
      "ĠRob": 2390,
      "ĠSur": 2391,
      "ĠPet": 2392,
      "Kon": 2393,
      "ĠkÄ±sm": 2394,
      "idae": 2395,
      "193": 2396,
      "ĠsanatÃ§Ä±": 2397,
      "Ġkas": 2398,
      "Ġdenklem": 2399,
      "Ġtrans": 2400,
      "oÃ§": 2401,
      "ĠinÅŁa": 2402,
      "ĠgenÃ§": 2403,
      "Ã¶net": 2404,
      "ĠCol": 2405,
      "Ġbasketbol": 2406,
      "Ġoyunc": 2407,
      "fesyon": 2408,
      "Amerika": 2409,
      "Ġiddi": 2410,
      "ĠMad": 2411,
      "ĠsÄ±ra": 2412,
      "ĠFC": 2413,
      "Ġnum": 2414,
      "ĠgÃ¶rÃ¼ÅŁ": 2415,
      "ĠNor": 2416,
      "cut": 2417,
      "Ġman": 2418,
      "ĠÃ¶ÄŁrenim": 2419,
      "fesyonel": 2420,
      "sen": 2421,
      "ciler": 2422,
      "one": 2423,
      "ĠÃ¶ldÃ¼": 2424,
      "Ġpat": 2425,
      "ĠDe": 2426,
      "afa": 2427,
      "dal": 2428,
      "rop": 2429,
      "Ġkuvvet": 2430,
      "ĠyÃ¶netim": 2431,
      "ĠdeÄŁiÅŁik": 2432,
      "ĠasÄ±l": 2433,
      "ris": 2434,
      "ĠHe": 2435,
      "ĠoyunlarÄ±": 2436,
      "Ġedeb": 2437,
      "Ġ2003": 2438,
      "baycan": 2439,
      "):": 2440,
      "atÃ¶r": 2441,
      "ĠeleÅŁtir": 2442,
      "Ã³": 2443,
      "kin": 2444,
      "ĠÄ°talya": 2445,
      "Ġdayan": 2446,
      "Ġ190": 2447,
      "Ġitibaren": 2448,
      "Ġpop": 2449,
      "ĠKol": 2450,
      "com": 2451,
      "eth": 2452,
      "ts": 2453,
      "ĠÅŁu": 2454,
      "Ġtelefon": 2455,
      "Ġsol": 2456,
      "ynÄ±": 2457,
      "ĠsuÃ§": 2458,
      "ED": 2459,
      "Ġanlat": 2460,
      "ĠGr": 2461,
      "ham": 2462,
      "ĠyaÅŁÄ±nd": 2463,
      "Ġkariyer": 2464,
      "ografi": 2465,
      "zerbaycan": 2466,
      "bak": 2467,
      "iri": 2468,
      "Ġsilah": 2469,
      "ĠdÃ¼nya": 2470,
      "ash": 2471,
      "keri": 2472,
      "ĠÃ§aÄŁ": 2473,
      "ai": 2474,
      "ĠBen": 2475,
      "ĠÃ§Ä±kan": 2476,
      "aul": 2477,
      "Ġteor": 2478,
      "ĠBay": 2479,
      "Ġmadd": 2480,
      "ision": 2481,
      "Ä°ngiliz": 2482,
      "ĠMus": 2483,
      "to": 2484,
      "ĠÅŀarkÄ±": 2485,
      "ĠArap": 2486,
      "azar": 2487,
      "ilim": 2488,
      "meler": 2489,
      "Ġcins": 2490,
      "ĠkÄ±y": 2491,
      "ĠbiÃ§": 2492,
      "Ġsaat": 2493,
      "ĠSam": 2494,
      "Ġkitab": 2495,
      "ĠPer": 2496,
      "ĠmÃ¼cad": 2497,
      "Ġsavun": 2498,
      "BM": 2499,
      "ata": 2500,
      "Ġmik": 2501,
      "yol": 2502,
      "Ð¸": 2503,
      "Ġ100": 2504,
      "ĠalmaktadÄ±r": 2505,
      "adolu": 2506,
      "oks": 2507,
      "Ã¼per": 2508,
      "ÃĸrÃ¼ntÃ¼": 2509,
      "ĠSul": 2510,
      "ĠSar": 2511,
      "ass": 2512,
      "ĠFakÃ¼lt": 2513,
      "Ġord": 2514,
      "nÄ±z": 2515,
      "ĠKadÄ±n": 2516,
      "ĠUlusal": 2517,
      "ier": 2518,
      "ayet": 2519,
      "ĠBaÅŁkan": 2520,
      "ĠdÃ¼ny": 2521,
      "Ġ36": 2522,
      "red": 2523,
      "ĠsaÄŁlam": 2524,
      "ĠTan": 2525,
      "Ä±ldÄ±z": 2526,
      "Ġresmi": 2527,
      "estiv": 2528,
      "ĠLeague": 2529,
      "Ġedil": 2530,
      "ekler": 2531,
      "ĠDoÄŁ": 2532,
      "ĠDev": 2533,
      "ener": 2534,
      "Ġidar": 2535,
      "Ġsahipleri": 2536,
      "Ġverilen": 2537,
      "ĠbaÄŁÄ±msÄ±z": 2538,
      "ĠdeÄŁeri": 2539,
      "Ġsinema": 2540,
      "ĠkuruluÅŁ": 2541,
      "manÄ±n": 2542,
      "ood": 2543,
      "ĠdÃ¶neminde": 2544,
      "au": 2545,
      "leyen": 2546,
      "Ä°s": 2547,
      "40": 2548,
      "ĠKÄ±r": 2549,
      "kr": 2550,
      "Ġsonucu": 2551,
      "ĠHay": 2552,
      "ĠfamilyasÄ±na": 2553,
      "kar": 2554,
      "FF": 2555,
      "bo": 2556,
      "Ã¼hend": 2557,
      "ahat": 2558,
      "tÄ±k": 2559,
      "alnÄ±z": 2560,
      "ĠÄ°slam": 2561,
      "ĠhÃ¼kÃ¼m": 2562,
      "ĠbÃ¼y": 2563,
      "ĠYer": 2564,
      "SB": 2565,
      "ĠKÄ±z": 2566,
      "emal": 2567,
      "width": 2568,
      "mez": 2569,
      "ner": 2570,
      "ĠÃ§ap": 2571,
      "ĠÃ§Ä±kÄ±ÅŁ": 2572,
      "Ġ2001": 2573,
      "lev": 2574,
      "Ġmodel": 2575,
      "giler": 2576,
      "ĠyanÄ±": 2577,
      "suz": 2578,
      "ĠgerÃ§ekleÅŁ": 2579,
      "Ġkam": 2580,
      "row": 2581,
      "Ġuygulam": 2582,
      "adÄ±k": 2583,
      "Ġberaber": 2584,
      "tÃ¶r": 2585,
      "ÄŁinde": 2586,
      ".\"": 2587,
      "Ġsosyal": 2588,
      "ĠEm": 2589,
      "Ä°stanbul": 2590,
      "Ġorgan": 2591,
      "izi": 2592,
      "ĠHas": 2593,
      "Alman": 2594,
      "ĠyapÄ±mÄ±": 2595,
      "Ġedilir": 2596,
      "ĠOy": 2597,
      "ĠadÄ±nÄ±": 2598,
      "eph": 2599,
      "ĠSin": 2600,
      "Ðµ": 2601,
      "Ġsar": 2602,
      "ĠÃ¼yeleri": 2603,
      "ĠbÃ¶lÃ¼": 2604,
      "70": 2605,
      "2000": 2606,
      "Ġokul": 2607,
      "ĠEÄŁ": 2608,
      "ĠMec": 2609,
      "Ġaday": 2610,
      "Ã¼ldÃ¼": 2611,
      "ĠMat": 2612,
      "Ġkut": 2613,
      "ĠkaldÄ±": 2614,
      "ex": 2615,
      "dÄ±z": 2616,
      "Ġ,": 2617,
      "illiam": 2618,
      "ĠyÃ¶netmen": 2619,
      "ĠAfrika": 2620,
      "gileri": 2621,
      "ĠSu": 2622,
      "aliyet": 2623,
      "Ġsem": 2624,
      "ĠMet": 2625,
      "Ġyarat": 2626,
      "liÄŁini": 2627,
      "75": 2628,
      "stit": 2629,
      "ĠKor": 2630,
      "80": 2631,
      "Ġyat": 2632,
      "Ġkalan": 2633,
      "ĠMich": 2634,
      "har": 2635,
      "ĠKul": 2636,
      "Ġpart": 2637,
      "mÃ®": 2638,
      "Ġ2021": 2639,
      "Ġsiyasi": 2640,
      "ess": 2641,
      "Ä±ÅŁÄ±k": 2642,
      "gisi": 2643,
      "ĠAynÄ±": 2644,
      "ĠCan": 2645,
      "ĠÅŁekl": 2646,
      "ĠetmiÅŁtir": 2647,
      "Ġinan": 2648,
      "iliÄŁi": 2649,
      "Ġmahalleleri": 2650,
      "Ġpolitik": 2651,
      "ĠbÃ¶lge": 2652,
      "Ġkariyeri": 2653,
      "yasÄ±": 2654,
      "Ã¼cÃ¼": 2655,
      "lÃ¼ÄŁ": 2656,
      "forman": 2657,
      "ĠuÄŁ": 2658,
      "Ġ1990": 2659,
      "Ġmut": 2660,
      "ĠgÃ¼nÃ¼mÃ¼z": 2661,
      "ĠdÄ±ÅŁÄ±nda": 2662,
      "meyi": 2663,
      "Ġ1999": 2664,
      "ise": 2665,
      "Ġkral": 2666,
      "asÄ±ndan": 2667,
      "ĠOrta": 2668,
      "Ġeksi": 2669,
      "Ġbun": 2670,
      "ica": 2671,
      "ĠyÄ±ldÄ±z": 2672,
      "rosu": 2673,
      "lanÄ±r": 2674,
      "ĠCon": 2675,
      "ĠHam": 2676,
      "''": 2677,
      "Ġortak": 2678,
      "mut": 2679,
      "ĠYarÄ±ÅŁ": 2680,
      "ĠDr": 2681,
      "ĠÃ§arpÄ±": 2682,
      "ebek": 2683,
      "neÄŁin": 2684,
      "Ġgid": 2685,
      "ĠAnadolu": 2686,
      "hangi": 2687,
      "iliÄŁ": 2688,
      "ĠgiriÅŁ": 2689,
      "ĠdolayÄ±": 2690,
      "uvar": 2691,
      "GÃ¼n": 2692,
      "ty": 2693,
      "ĠyarÄ±": 2694,
      "ĠDemokr": 2695,
      "nden": 2696,
      "ĠfazlasÄ±": 2697,
      "bah": 2698,
      "ĠkaldÄ±r": 2699,
      "ĠYÃ¼k": 2700,
      "rsak": 2701,
      "ous": 2702,
      "ĠÃ§ift": 2703,
      "ĠBatÄ±": 2704,
      "ĠyapmÄ±ÅŁtÄ±r": 2705,
      "Ġolabilir": 2706,
      "Ġtic": 2707,
      "ĠyerleÅŁim": 2708,
      "ĠUluslararasÄ±": 2709,
      "ĠÃĸr": 2710,
      "ĠparÃ§asÄ±": 2711,
      "alama": 2712,
      "Ġorta": 2713,
      "ĠyaygÄ±n": 2714,
      "taÅŁ": 2715,
      "ĠYayÄ±n": 2716,
      "mesine": 2717,
      "Film": 2718,
      "Ġfaaliyet": 2719,
      "GC": 2720,
      "eng": 2721,
      "ĠkullanÄ±lÄ±r": 2722,
      "amÄ±": 2723,
      "Ġmat": 2724,
      "Ã¼d": 2725,
      "Ġbirbir": 2726,
      "anlarÄ±": 2727,
      "ĠsÃ¼rdÃ¼r": 2728,
      "ĠPort": 2729,
      "ĠFI": 2730,
      "iir": 2731,
      "ĠkeÅŁf": 2732,
      "Ġto": 2733,
      "Ġweb": 2734,
      "ĠyÃ¶ntem": 2735,
      "lisi": 2736,
      "lÃ¼ÄŁÃ¼": 2737,
      "elerinde": 2738,
      "lah": 2739,
      "ĠaldÄ±ÄŁÄ±": 2740,
      "Ġ35": 2741,
      "ĠĠĊ": 2742,
      "Ġboz": 2743,
      "ld": 2744,
      "BMM": 2745,
      "Ġbenzer": 2746,
      "Ġsezonunda": 2747,
      "95": 2748,
      "Ġcinsidir": 2749,
      "Ġseferinde": 2750,
      "Ġiht": 2751,
      "Ġuyar": 2752,
      "ean": 2753,
      "lerdir": 2754,
      "ĠoranÄ±": 2755,
      "Ġ1998": 2756,
      "ÃŃ": 2757,
      "Ã¼slÃ¼m": 2758,
      "SÄ±r": 2759,
      "ĠÄ°ngilizce": 2760,
      "lemek": 2761,
      "ĠÄ°ran": 2762,
      "ĠBaÄŁ": 2763,
      "str": 2764,
      "ĠSayÄ±": 2765,
      "best": 2766,
      "45": 2767,
      "ĠKr": 2768,
      "ino": 2769,
      "Ġbelediy": 2770,
      "ĠSÄ±r": 2771,
      "ĠkiÅŁiye": 2772,
      "ani": 2773,
      "Ġlider": 2774,
      "ikÃ¢": 2775,
      "ĠdoÄŁdu": 2776,
      "Ġproj": 2777,
      "kat": 2778,
      "Ġ45": 2779,
      "pit": 2780,
      "larÄ±yla": 2781,
      "alarÄ±nda": 2782,
      "ĠBal": 2783,
      "aca": 2784,
      "ĠuluslararasÄ±": 2785,
      "Ġgem": 2786,
      "Ġifade": 2787,
      "ĠGir": 2788,
      "ĠBiz": 2789,
      "Ġrad": 2790,
      "Ġmevcut": 2791,
      "ĠChar": 2792,
      "onu": 2793,
      "ĠyÄ±lÄ±ndan": 2794,
      "akip": 2795,
      "ĠMon": 2796,
      "Ġsistemi": 2797,
      "ĠbaÅŁkanÄ±": 2798,
      "tion": 2799,
      "ternet": 2800,
      "imar": 2801,
      "ĠkulÃ¼p": 2802,
      "omet": 2803,
      "yanÄ±n": 2804,
      "ive": 2805,
      "Ġtoplum": 2806,
      "ĠÄ°Ã§": 2807,
      "ĠgÃ¶renler": 2808,
      "gesi": 2809,
      "Ãĸz": 2810,
      "asÄ±yla": 2811,
      "65": 2812,
      "ĠMor": 2813,
      "alarÄ±n": 2814,
      "ĠyoÄŁun": 2815,
      "vat": 2816,
      "ĠÄ°talyan": 2817,
      "ke": 2818,
      "ĠKrallÄ±k": 2819,
      "ames": 2820,
      "endi": 2821,
      "Ġ32": 2822,
      "Ġsahibi": 2823,
      "Ã¼hendis": 2824,
      "ĠyapÄ±l": 2825,
      "Ġaskeri": 2826,
      "Rus": 2827,
      "ory": 2828,
      "Ġkel": 2829,
      "ĠMak": 2830,
      "lÄ±ÄŁÄ±nÄ±": 2831,
      "old": 2832,
      "ĠParis": 2833,
      "gal": 2834,
      "ĠVol": 2835,
      "ĠBÃ¶lÃ¼m": 2836,
      "ĠTV": 2837,
      "ĠdÃ¶nemde": 2838,
      "ĠÃ§at": 2839,
      "ĠsayÄ±nÄ±n": 2840,
      "Ġbunun": 2841,
      "Ġnokt": 2842,
      "ĠteÅŁ": 2843,
      "ĠKit": 2844,
      "ilya": 2845,
      "Ġbulundu": 2846,
      "Ġform": 2847,
      "Ġtiyatro": 2848,
      "Ġrek": 2849,
      "ĠilÃ§e": 2850,
      "Ġyerel": 2851,
      "ĠÃ¼Ã§Ã¼ncÃ¼": 2852,
      "ĠtanÄ±n": 2853,
      "elerinin": 2854,
      "Ġetkin": 2855,
      "ĠbÃ¼tÃ¼n": 2856,
      ".)": 2857,
      "Ġkoy": 2858,
      "ĠgÃ¶Ã§": 2859,
      "ĠyalnÄ±z": 2860,
      "32": 2861,
      "DA": 2862,
      "ĠkulÃ¼b": 2863,
      "ĠMÄ±sÄ±r": 2864,
      "nuv": 2865,
      "ĠWilliam": 2866,
      "ĠbabasÄ±": 2867,
      "gr": 2868,
      "2008": 2869,
      "88": 2870,
      "ĠGeÃ§": 2871,
      "ĠdÃ¼zenlenen": 2872,
      "ĠasÄ±llÄ±": 2873,
      "Ġ1996": 2874,
      "ger": 2875,
      "ĠTarih": 2876,
      "Ġsonraki": 2877,
      "illeri": 2878,
      "areb": 2879,
      "are": 2880,
      "ĠAÅŁ": 2881,
      "Ġ1993": 2882,
      "Ġmahalledir": 2883,
      "Ã¼zel": 2884,
      "Ġpoz": 2885,
      "ĠKaz": 2886,
      "mesini": 2887,
      "Ġ1997": 2888,
      "Ġ1994": 2889,
      "ĠkarÅŁÄ±laÅŁ": 2890,
      "talÄ±k": 2891,
      "Ġherhangi": 2892,
      "ĠYÃ¶net": 2893,
      "Ġgrubu": 2894,
      "ĠLond": 2895,
      "Ġ1995": 2896,
      "ĠhiÃ§bir": 2897,
      "ĠÃ¶rnek": 2898,
      "sin": 2899,
      "ĠsaldÄ±rÄ±": 2900,
      "Ġrenk": 2901,
      "Ġtekn": 2902,
      "HP": 2903,
      "ĠkatÄ±nÄ±n": 2904,
      "ĠitibarÄ±yla": 2905,
      "rek": 2906,
      "ww": 2907,
      "Ġod": 2908,
      "ĠGÃ¶k": 2909,
      "ĠhÃ¼c": 2910,
      "ĠAz": 2911,
      "krayn": 2912,
      "Ġyine": 2913,
      "ĠiÃ§eren": 2914,
      "ĠbÃ¼yÃ¼ktÃ¼r": 2915,
      "Ġdenkleminde": 2916,
      "ĠFil": 2917,
      "ĠÃ§oÄŁu": 2918,
      "ĠsiyasetÃ§i": 2919,
      "Ġhemen": 2920,
      "Ġfil": 2921,
      "uldu": 2922,
      "ĠVal": 2923,
      "ĠSen": 2924,
      "ĠLis": 2925,
      "Ġtep": 2926,
      "adÄ±r": 2927,
      "ersiz": 2928,
      "ÑĢ": 2929,
      "Ã¼nkÃ¼": 2930,
      "Ġ1992": 2931,
      "Ġsoy": 2932,
      "ĠKÃ¼r": 2933,
      "SBN": 2934,
      "emen": 2935,
      "Ġhava": 2936,
      "Ã¼yor": 2937,
      "Ġoyuncular": 2938,
      "ĠMÃ¼zik": 2939,
      "kel": 2940,
      "ille": 2941,
      "Ã¢n": 2942,
      "ĠyapÄ±ldÄ±": 2943,
      "Ġbek": 2944,
      "diler": 2945,
      "ĠkatÄ±l": 2946,
      "Ġann": 2947,
      "ĠalbÃ¼mleri": 2948,
      "ĠGu": 2949,
      "Gen": 2950,
      "Ġpek": 2951,
      "Ð½": 2952,
      "ĠamaÃ§": 2953,
      "Ġ33": 2954,
      "ein": 2955,
      "andÄ±": 2956,
      "Ġedilm": 2957,
      "langÄ±": 2958,
      "ĠHav": 2959,
      "ĠAzerbaycan": 2960,
      "Ã¶ylece": 2961,
      "doÄŁ": 2962,
      "2007": 2963,
      "ĠÃ§alÄ±ÅŁtÄ±": 2964,
      "kil": 2965,
      "2012": 2966,
      "ĠAsya": 2967,
      "ĠvardÄ±": 2968,
      "NA": 2969,
      "leriyle": 2970,
      "ĠayrÄ±": 2971,
      "Br": 2972,
      "otoÄŁraf": 2973,
      "ori": 2974,
      "ĠablasÄ±": 2975,
      "vi": 2976,
      "Ġiler": 2977,
      "rail": 2978,
      "dÄ±n": 2979,
      "ustafa": 2980,
      "ĠHak": 2981,
      "ĠAday": 2982,
      "Ġbat": 2983,
      "Ġlig": 2984,
      "asal": 2985,
      "ĠBat": 2986,
      "ĠUz": 2987,
      "Ġtart": 2988,
      "madan": 2989,
      "ĠSte": 2990,
      "Ġsitesi": 2991,
      "ĠGeor": 2992,
      "ĠyaÅŁÄ±ndaydÄ±": 2993,
      "Ġcez": 2994,
      "ba": 2995,
      "%|": 2996,
      "Ġgez": 2997,
      "ĠbiÃ§im": 2998,
      "alam": 2999,
      "Ġsonuc": 3000,
      "su": 3001,
      "arÅŁ": 3002,
      "ingle": 3003,
      "ĠAp": 3004,
      "lenmiÅŁtir": 3005,
      "35": 3006,
      "ĠyÄ±llarÄ±nda": 3007,
      "ĠkoÅŁ": 3008,
      "ene": 3009,
      "itler": 3010,
      "be": 3011,
      "arlar": 3012,
      "Ġ2022": 3013,
      "gÃ¼t": 3014,
      "ovision": 3015,
      "masÄ±nÄ±n": 3016,
      "2006": 3017,
      "ho": 3018,
      "ĠaÅŁaÄŁÄ±": 3019,
      "Ġayak": 3020,
      "2009": 3021,
      "Ġoynam": 3022,
      "ĠBun": 3023,
      "Ġkorum": 3024,
      "ĠMÃ¼slÃ¼m": 3025,
      "ĠOlimpiyatlarÄ±": 3026,
      "Ġ1980": 3027,
      "77": 3028,
      "ansÄ±": 3029,
      "ahr": 3030,
      "Ä±ÅŁma": 3031,
      "ĠBeÅŁ": 3032,
      "SS": 3033,
      "Ġmotor": 3034,
      "Ġki": 3035,
      "Ġ49": 3036,
      "olar": 3037,
      "gÃ¼r": 3038,
      "|}": 3039,
      "Ġbelde": 3040,
      "Ġona": 3041,
      "ĠSay": 3042,
      "ĠgÃ¼r": 3043,
      "eld": 3044,
      "ĠbaÅŁlayan": 3045,
      "Ġziy": 3046,
      "abancÄ±": 3047,
      "Ã¤": 3048,
      "ĠSultan": 3049,
      "ĠAltÄ±n": 3050,
      "ĠMur": 3051,
      "lov": 3052,
      "ĠNe": 3053,
      "Ġkaybet": 3054,
      "Ġre": 3055,
      "ĠSe": 3056,
      "Ġsona": 3057,
      "ĠSosyal": 3058,
      "ĠaraÃ§": 3059,
      "2011": 3060,
      "ĠyaÅŁÄ±ndadÄ±r": 3061,
      "ĠyaÄŁ": 3062,
      "ĠDon": 3063,
      "ĠbulunduÄŁu": 3064,
      "Ġotom": 3065,
      "ĠsayÄ±da": 3066,
      "Ġfutbolcudur": 3067,
      "Ġisimli": 3068,
      "berg": 3069,
      "48": 3070,
      "ĠPat": 3071,
      "elsef": 3072,
      "ĠÃ¼rÃ¼n": 3073,
      "ĠIs": 3074,
      "dÃ¼k": 3075,
      "ĠÃ§oÄŁun": 3076,
      "Ġburada": 3077,
      "ĠÃ¼nlÃ¼": 3078,
      "ĠpaylaÅŁtÄ±r": 3079,
      "Ġpiyas": 3080,
      "Ġbenz": 3081,
      "ĠalanÄ±": 3082,
      "anlÄ±": 3083,
      "Ġfakat": 3084,
      "Ġmer": 3085,
      "ĠGenÃ§": 3086,
      "ĠAblasÄ±": 3087,
      "Ġamac": 3088,
      "rens": 3089,
      "ĠgeÃ§ti": 3090,
      "kenin": 3091,
      "Ġ189": 3092,
      "org": 3093,
      "talya": 3094,
      "Ġgirdi": 3095,
      "ĠBaÅŁkanÄ±": 3096,
      "Â²": 3097,
      "form": 3098,
      "2004": 3099,
      "ĠSil": 3100,
      "Ġmek": 3101,
      "ĠTer": 3102,
      "ĠkÃ¼t": 3103,
      "ĠÃ¼niversit": 3104,
      "usal": 3105,
      "ĠalbÃ¼mÃ¼": 3106,
      "Ġdair": 3107,
      "taj": 3108,
      "ĠoynadÄ±": 3109,
      ".,": 3110,
      "kalan": 3111,
      "Ġkil": 3112,
      "Ġ1991": 3113,
      "TÃ¼m": 3114,
      "Ġnumar": 3115,
      "eceÄŁi": 3116,
      "emin": 3117,
      "ĠanlamÄ±na": 3118,
      "ĠettiÄŁi": 3119,
      "ĠHat": 3120,
      "ĠFakÃ¼ltesi": 3121,
      "ĠsiyasetÃ§iler": 3122,
      "Ä±yordu": 3123,
      "ĠDi": 3124,
      "ĠVer": 3125,
      "Ġtespit": 3126,
      "ĠYÃ¼ksek": 3127,
      "Ġkonusunda": 3128,
      "ona": 3129,
      "aceae": 3130,
      "76": 3131,
      "ĠpaylaÅŁtÄ±rÄ±lacak": 3132,
      "Ġidi": 3133,
      "Ġizin": 3134,
      "ĠÃ·": 3135,
      "ĠJo": 3136,
      "ĠISBN": 3137,
      "2005": 3138,
      "ĠayÄ±nda": 3139,
      "Ġfizik": 3140,
      "Pro": 3141,
      "ital": 3142,
      "ĠedilmiÅŁ": 3143,
      "elere": 3144,
      "ĠDÃ¶n": 3145,
      "ĠYol": 3146,
      "Ġperforman": 3147,
      "eksiyon": 3148,
      "BaÅŁ": 3149,
      "lek": 3150,
      "Ġdon": 3151,
      "Ġilan": 3152,
      "lenir": 3153,
      "acaÄŁÄ±nÄ±": 3154,
      "Ġ48": 3155,
      "mÄ±z": 3156,
      "ĠMehmet": 3157,
      "Ġsorun": 3158,
      "ĠSol": 3159,
      "ĠMer": 3160,
      "44": 3161,
      "ĠGer": 3162,
      "Ġhaline": 3163,
      "ĠiÃ§erisinde": 3164,
      "...": 3165,
      "Ġfik": 3166,
      "Ä°lk": 3167,
      "Ġtransfer": 3168,
      "ĠyÃ¼rÃ¼t": 3169,
      "Ġetkil": 3170,
      "ĠBelediy": 3171,
      "Ġbildir": 3172,
      "ristiyan": 3173,
      "ardÄ±m": 3174,
      "Ä±rÄ±": 3175,
      "Res": 3176,
      "illiyet": 3177,
      "za": 3178,
      "ael": 3179,
      "iÄŁi": 3180,
      "ĠÅŁehirler": 3181,
      "may": 3182,
      "atif": 3183,
      "Ġsayf": 3184,
      "Ġoper": 3185,
      "ĠolmuÅŁ": 3186,
      "ĠyÄ±llÄ±k": 3187,
      "masÄ±yla": 3188,
      "orld": 3189,
      "ematik": 3190,
      "etik": 3191,
      "cularÄ±": 3192,
      "ĠtaÅŁÄ±m": 3193,
      "ĠSc": 3194,
      "tand": 3195,
      "Ġteh": 3196,
      "Ġener": 3197,
      "ĠJos": 3198,
      "36": 3199,
      "Ch": 3200,
      "ĠbaÅŁken": 3201,
      "ĠsÄ±cak": 3202,
      "ĠBl": 3203,
      "Ġ60": 3204,
      "Ġle": 3205,
      "Ġbitir": 3206,
      "ĠJapon": 3207,
      "Ġuygun": 3208,
      "alim": 3209,
      "ĠYap": 3210,
      "neÄŁi": 3211,
      "ĠFestiv": 3212,
      "Ġbiridir": 3213,
      "ze": 3214,
      "Ak": 3215,
      "Hay": 3216,
      "ĠhÃ¢": 3217,
      "Ġilet": 3218,
      "ĠSim": 3219,
      "ĠdoÄŁr": 3220,
      "ĠAngel": 3221,
      "ĠtanÄ±t": 3222,
      "bu": 3223,
      "ĠGrub": 3224,
      "okal": 3225,
      "ĠBakanlÄ±ÄŁÄ±": 3226,
      "ndeki": 3227,
      "Ġsp": 3228,
      "ĠoldukÃ§a": 3229,
      "BA": 3230,
      "acaÄŁÄ±": 3231,
      "ĠyazarÄ±": 3232,
      "ĠTel": 3233,
      "ĠOl": 3234,
      "ĠkÃ¶yleri": 3235,
      "Ġyorum": 3236,
      "ĠbaÅŁlat": 3237,
      "ĠFIFA": 3238,
      "ĠyaÅŁayan": 3239,
      "Ġ38": 3240,
      "ĠAnt": 3241,
      "Ġ34": 3242,
      "ius": 3243,
      "Ġdeney": 3244,
      "Ġengel": 3245,
      "Ġdizileri": 3246,
      "2013": 3247,
      "ĠkiÅŁiler": 3248,
      "ĠRobert": 3249,
      "ĠBizans": 3250,
      "Ã¼mÃ¼ÅŁ": 3251,
      "Ġvers": 3252,
      "ĠÅŁeklinde": 3253,
      "Ġnit": 3254,
      "Ġ64": 3255,
      "elerini": 3256,
      "ĠgÃ¼Ã§lÃ¼": 3257,
      "38": 3258,
      "Ġ47": 3259,
      "ĠfÄ±r": 3260,
      "ĠFutbol": 3261,
      "Ġhede": 3262,
      "ress": 3263,
      "Ġmem": 3264,
      "ational": 3265,
      "ekten": 3266,
      "ĠaltÄ±n": 3267,
      "ĠJaponya": 3268,
      "rand": 3269,
      "net": 3270,
      "Ġserbest": 3271,
      "Ġimp": 3272,
      "ĠtaÅŁÄ±n": 3273,
      "ame": 3274,
      "ydÄ±": 3275,
      "Ġkem": 3276,
      "ĠyÄ±llarda": 3277,
      "Ġsandal": 3278,
      "ĠMc": 3279,
      "Ġbilgi": 3280,
      "ĠÅŀehir": 3281,
      "ĠuÄŁr": 3282,
      "ĠÄ°st": 3283,
      "ĠkÃ¶ydÃ¼r": 3284,
      "ĠMustafa": 3285,
      "ÄŁÄ±n": 3286,
      "Ġnes": 3287,
      "2014": 3288,
      "iÅŁi": 3289,
      "iÅŁleri": 3290,
      "ford": 3291,
      "Ġ80": 3292,
      "Ġ1970": 3293,
      "Oyun": 3294,
      "ĠÄ°zmir": 3295,
      "ath": 3296,
      "ĠTÃ¼rkÃ§e": 3297,
      "my": 3298,
      "atistik": 3299,
      "isyen": 3300,
      "ĠÃĸn": 3301,
      "Ġkonum": 3302,
      "otlar": 3303,
      "ĠAvustur": 3304,
      "ĠbaÅŁarÄ±lÄ±": 3305,
      "Ġlis": 3306,
      "ĠErk": 3307,
      "ĠKo": 3308,
      "ĠKay": 3309,
      "Ġbaz": 3310,
      "Ġkir": 3311,
      "Jap": 3312,
      "ĠMo": 3313,
      "obil": 3314,
      "edik": 3315,
      "ĠyardÄ±mcÄ±": 3316,
      "ĠMerkezi": 3317,
      "ĠRo": 3318,
      "Ġmezun": 3319,
      "Ġbebek": 3320,
      "ĠTar": 3321,
      "Ġsaha": 3322,
      "adÄ±ÄŁÄ±nÄ±": 3323,
      "ĠbaÅŁÄ±na": 3324,
      "erson": 3325,
      "ins": 3326,
      "Ã¼len": 3327,
      "enc": 3328,
      "Ã¨": 3329,
      "ĠmaÄŁ": 3330,
      "ĠOyunlarÄ±": 3331,
      "Ġsey": 3332,
      "Ġmadalya": 3333,
      "ĠyalnÄ±zca": 3334,
      "ĠDemir": 3335,
      "ĠKuvvet": 3336,
      "mar": 3337,
      "nav": 3338,
      "ĠateÅŁ": 3339,
      "ĠdeÄŁildir": 3340,
      "Ġ188": 3341,
      "Ġuygulan": 3342,
      "ann": 3343,
      "Ġveren": 3344,
      "ĠAvustr": 3345,
      "ĠMe": 3346,
      "Ġbiy": 3347,
      "ilerek": 3348,
      "erli": 3349,
      "Ġverildi": 3350,
      "Ġpuan": 3351,
      "aspor": 3352,
      "kem": 3353,
      "ĠÃ¼lke": 3354,
      "uklu": 3355,
      "ediÄŁi": 3356,
      "ĠAhmet": 3357,
      "Ġ39": 3358,
      "Ġiddia": 3359,
      "55": 3360,
      "Ġgelenek": 3361,
      "adaki": 3362,
      "ester": 3363,
      "Ġaraba": 3364,
      "Ġhukuk": 3365,
      "uel": 3366,
      "ĠseÃ§ildi": 3367,
      "ormal": 3368,
      "ĠsayÄ±m": 3369,
      "Ġ[": 3370,
      "lex": 3371,
      "2002": 3372,
      "Ġbay": 3373,
      "ĠEurovision": 3374,
      "ĠYarÄ±ÅŁmasÄ±": 3375,
      "ĠyayÄ±nlandÄ±": 3376,
      "ĠPaul": 3377,
      "lilik": 3378,
      "edeki": 3379,
      "Ġtamamen": 3380,
      "Bel": 3381,
      "ows": 3382,
      "Ñģ": 3383,
      "Ġhey": 3384,
      "Ã¼le": 3385,
      "Ġoyunu": 3386,
      "ĠgÃ¼nÃ¼": 3387,
      "Ġkapsam": 3388,
      "ĠÃĸdÃ¼lleri": 3389,
      "ĠÄ°spanya": 3390,
      "Ġadet": 3391,
      "Ġseslendir": 3392,
      "2001": 3393,
      "Ġkuruldu": 3394,
      "ĠgÃ¼reÅŁ": 3395,
      "iforn": 3396,
      "Ġsab": 3397,
      "Ġprofesyonel": 3398,
      "Ġkanal": 3399,
      "ded": 3400,
      "iÄŁini": 3401,
      "ĠEf": 3402,
      "Äĩ": 3403,
      "Ġsak": 3404,
      "64": 3405,
      "ĠBor": 3406,
      "ĠyÄ±lÄ±na": 3407,
      "ĠÃĩaÄŁ": 3408,
      "ĠcanlandÄ±r": 3409,
      "ĠkullanÄ±m": 3410,
      "Ġmerkezli": 3411,
      "Ġ1989": 3412,
      "amaz": 3413,
      "ĠyÄ±k": 3414,
      "Ä±ÅŁmalar": 3415,
      "ĠamacÄ±yla": 3416,
      "ĠyanÄ±nda": 3417,
      "ĠGo": 3418,
      "ĠmÃ¼cadele": 3419,
      "ney": 3420,
      "ĠMed": 3421,
      "Ġko": 3422,
      "iyah": 3423,
      "ĠNo": 3424,
      "ndan": 3425,
      "Ġ37": 3426,
      "ĠGre": 3427,
      "34": 3428,
      "ĠSpor": 3429,
      "ĠÅŁehri": 3430,
      "erken": 3431,
      "ĠYaÅŁ": 3432,
      "ĠGÃ¶r": 3433,
      "ĠYÃ¼z": 3434,
      "ĠEnstit": 3435,
      "ĠÅŁarkÄ±larÄ±": 3436,
      "ott": 3437,
      "Ġmark": 3438,
      "ĠKore": 3439,
      "ĠiÅŁlet": 3440,
      "ano": 3441,
      "alarda": 3442,
      "malÄ±": 3443,
      "Ġolacak": 3444,
      "St": 3445,
      "ita": 3446,
      "Ġmetre": 3447,
      "ĠTim": 3448,
      "uf": 3449,
      "emek": 3450,
      "layÄ±": 3451,
      "leÅŁme": 3452,
      "bat": 3453,
      "ĠaÃ§Ä±klam": 3454,
      "oph": 3455,
      "Ġverir": 3456,
      "aka": 3457,
      "ilerini": 3458,
      "SC": 3459,
      "ifa": 3460,
      "Ġbile": 3461,
      "ĠKap": 3462,
      "asÄ±l": 3463,
      "ĠKam": 3464,
      "ĠFer": 3465,
      "ola": 3466,
      "Ġbunu": 3467,
      "Ġred": 3468,
      "SÄ±ralama": 3469,
      "Ġdefter": 3470,
      "ĠuÃ§ak": 3471,
      "Ġkurum": 3472,
      "Ġhaber": 3473,
      "Ġhast": 3474,
      "viÃ§": 3475,
      "tp": 3476,
      "ĠdÃ¼ÅŁÃ¼k": 3477,
      "Ġnedenle": 3478,
      "Ġdak": 3479,
      "Ġvol": 3480,
      "hal": 3481,
      "Ġkamp": 3482,
      "rag": 3483,
      "2015": 3484,
      "Ã¶v": 3485,
      "ĠÃ¶nceki": 3486,
      "taydÄ±": 3487,
      "own": 3488,
      "251": 3489,
      "Ġkilis": 3490,
      "zon": 3491,
      "Ġdep": 3492,
      "Ġgiz": 3493,
      "shire": 3494,
      "39": 3495,
      "Ġhap": 3496,
      "Ġimparator": 3497,
      "Ġbar": 3498,
      "Ġtarihli": 3499,
      "Ã¶m": 3500,
      "masÄ±nda": 3501,
      "iyatrosu": 3502,
      "mal": 3503,
      "ĠSuriye": 3504,
      "Ã¢r": 3505,
      "Ġsit": 3506,
      "ĠSev": 3507,
      "eyin": 3508,
      "ihaz": 3509,
      "Ġihtiy": 3510,
      "Ġhes": 3511,
      "ĠRec": 3512,
      "Ad": 3513,
      "ĠÃ§Ã¶z": 3514,
      "tiler": 3515,
      "anlÄ±k": 3516,
      "ĠÅŁair": 3517,
      "190": 3518,
      "ĠMy": 3519,
      "Ġversiyon": 3520,
      "ĠÃ¼retim": 3521,
      "avi": 3522,
      "2016": 3523,
      "uru": 3524,
      "ĠhikÃ¢": 3525,
      "ĠAlbÃ¼m": 3526,
      "Ġsonucunda": 3527,
      "amam": 3528,
      "Ġtarz": 3529,
      "ĠyayÄ±nlanan": 3530,
      "ĠmaÃ§ta": 3531,
      "Ä±sÄ±na": 3532,
      "//": 3533,
      "isel": 3534,
      "ĠAc": 3535,
      "ĠEs": 3536,
      "Ġ1986": 3537,
      "ĠLondra": 3538,
      "elerine": 3539,
      "Ġ1987": 3540,
      "krayna": 3541,
      "ĠgÃ¶rdÃ¼": 3542,
      "lÄ±ÄŁÄ±na": 3543,
      "Ġgalak": 3544,
      "lenmiÅŁ": 3545,
      "ĠBulgar": 3546,
      "Ġmasa": 3547,
      "manÄ±": 3548,
      "Ġboyut": 3549,
      "ĠFo": 3550,
      "Par": 3551,
      "Ġpozisyon": 3552,
      "Ġ1988": 3553,
      "Ã¼yle": 3554,
      "ĠÄ°sveÃ§": 3555,
      "cisi": 3556,
      "adi": 3557,
      "fik": 3558,
      "ĠOt": 3559,
      "Ġdikkat": 3560,
      "Ã§ift": 3561,
      "Ä±sÄ±ndan": 3562,
      "Ġsandalye": 3563,
      "Ä±br": 3564,
      "ena": 3565,
      "ĠQu": 3566,
      "Ġders": 3567,
      "ane": 3568,
      "ĠMos": 3569,
      "ĠWil": 3570,
      "ÅŁehir": 3571,
      "Ä±brÄ±s": 3572,
      "ladÄ±ÄŁÄ±": 3573,
      "Ġmeydana": 3574,
      "1990": 3575,
      "ĠĠĠ": 3576,
      "atan": 3577,
      "istler": 3578,
      "Ġetmektedir": 3579,
      "ence": 3580,
      "ĠtÃ¼rÃ¼dÃ¼r": 3581,
      "ĠÃ§alÄ±ÅŁan": 3582,
      "ammed": 3583,
      "Ġgitar": 3584,
      "ĠyazÄ±": 3585,
      "Ġmadal": 3586,
      "Ġulusal": 3587,
      "eceÄŁini": 3588,
      "ere": 3589,
      "ĠYak": 3590,
      "ĠAkadem": 3591,
      "ĠDavid": 3592,
      "Ġrap": 3593,
      "Ġsezonu": 3594,
      "Ġ90": 3595,
      "ĠdÃ¶ndÃ¼": 3596,
      "Ġdel": 3597,
      "yÃ¼z": 3598,
      "Ġ1960": 3599,
      "nÄ±": 3600,
      "ĠMel": 3601,
      "ĠkardeÅŁi": 3602,
      "://": 3603,
      "ura": 3604,
      "Ġ44": 3605,
      "ĠHristiyan": 3606,
      "iyeti": 3607,
      "ĠfotoÄŁraf": 3608,
      "ĠÃ¶ner": 3609,
      "asÄ±dÄ±r": 3610,
      "ĠetmiÅŁ": 3611,
      "masÄ±ndan": 3612,
      "ĠgÃ¶rÃ¼ntÃ¼": 3613,
      "Ã§ileri": 3614,
      "ĠBakanÄ±": 3615,
      "EFA": 3616,
      "ĠÃ§evir": 3617,
      "ĠTÃ¼m": 3618,
      "ment": 3619,
      "ĠeÄŁit": 3620,
      "Ġzar": 3621,
      "ĠkÃ¶ken": 3622,
      "age": 3623,
      "Ġbelediye": 3624,
      "gileridir": 3625,
      "tim": 3626,
      "Ġforma": 3627,
      "Ġordu": 3628,
      "ĠKÃ¶": 3629,
      "alarÄ±nÄ±": 3630,
      "deniz": 3631,
      "navut": 3632,
      "Ġhangileridir": 3633,
      "Ġhedef": 3634,
      "Ġsahn": 3635,
      "illa": 3636,
      "Ġ46": 3637,
      "aÄŁÄ±t": 3638,
      "uluÄŁu": 3639,
      "Ġbilinir": 3640,
      "Ġkelim": 3641,
      "Ġfon": 3642,
      "indistan": 3643,
      "Ġseviy": 3644,
      "ĠKilis": 3645,
      "meden": 3646,
      "Ġkayb": 3647,
      "FransÄ±z": 3648,
      "ĠkeÅŁfed": 3649,
      "eÅŁil": 3650,
      "hi": 3651,
      "ilmek": 3652,
      "Fransa": 3653,
      "ĠKim": 3654,
      "Ev": 3655,
      "ĠbaÅŁlar": 3656,
      "ÑĤ": 3657,
      "Ġteda": 3658,
      "ĠMÃ¼slÃ¼man": 3659,
      "37": 3660,
      "ĠHen": 3661,
      "Ġkazanan": 3662,
      "Ġderec": 3663,
      "ĠKÃ¶y": 3664,
      "TBMM": 3665,
      "ĠTay": 3666,
      "Ġkurdu": 3667,
      "Ġarac": 3668,
      "ĠÃľÃ§": 3669,
      "2003": 3670,
      "Ä±lmaktadÄ±r": 3671,
      "ĠYar": 3672,
      "ĠWh": 3673,
      "ĠTiyatrosu": 3674,
      "ĠartÄ±yor": 3675,
      "macÄ±": 3676,
      "Ġtal": 3677,
      "enerbah": 3678,
      "urum": 3679,
      "ĠMez": 3680,
      "cÄ±lÄ±k": 3681,
      "ĠdoÄŁal": 3682,
      "ĠbaÅŁlamÄ±ÅŁtÄ±r": 3683,
      "tic": 3684,
      "Ġmodern": 3685,
      "Ġederek": 3686,
      "Ø§": 3687,
      "ĠMin": 3688,
      "Ġsingle": 3689,
      "Ã¼lÃ¼": 3690,
      "ĠyazarlarÄ±": 3691,
      "Ġtas": 3692,
      "lanmasÄ±": 3693,
      "ĠtasarÄ±m": 3694,
      "Ġyana": 3695,
      "mÄ±zÄ±": 3696,
      "ĠgÃ¶l": 3697,
      "ĠFin": 3698,
      "ebil": 3699,
      "ĠOyuncu": 3700,
      "ĠFakat": 3701,
      "Ä±ldÄ±ÄŁÄ±": 3702,
      "Ġ70": 3703,
      "Ä±yÄ±": 3704,
      "ĠÃ¼zerinden": 3705,
      "lif": 3706,
      "ellow": 3707,
      "ĠCen": 3708,
      "ĠÃ¼lkenin": 3709,
      "eyn": 3710,
      "Ġhafta": 3711,
      "Bur": 3712,
      "Ġmed": 3713,
      "Orta": 3714,
      "iden": 3715,
      "ĠkÄ±zÄ±": 3716,
      "uma": 3717,
      "Ġanda": 3718,
      "ette": 3719,
      "ĠBritan": 3720,
      "ĠsonrasÄ±": 3721,
      "FC": 3722,
      "0000": 3723,
      "Ġelma": 3724,
      "olojisi": 3725,
      "che": 3726,
      "ĠkÃ¶tÃ¼": 3727,
      "lasik": 3728,
      "Ġpiyasaya": 3729,
      "ula": 3730,
      "ĠMillet": 3731,
      "ĠRos": 3732,
      "va": 3733,
      "Ġzorunda": 3734,
      "ĠhÄ±zlÄ±": 3735,
      "TV": 3736,
      "ĠbaÅŁÄ±nda": 3737,
      "iter": 3738,
      "ĠgeÃ§miÅŁ": 3739,
      "Ġdizisi": 3740,
      "Ġmar": 3741,
      "CA": 3742,
      "ĠHo": 3743,
      "ĠgÃ¶zlem": 3744,
      "31": 3745,
      "Ġismi": 3746,
      "uth": 3747,
      "ĠKemal": 3748,
      "57": 3749,
      "do": 3750,
      "Ġla": 3751,
      "ĠBrez": 3752,
      "Ä±ntÄ±": 3753,
      "ĠStr": 3754,
      "enerbahÃ§e": 3755,
      "Ġmalz": 3756,
      "ilere": 3757,
      "ĠresmÃ®": 3758,
      "Ġiken": 3759,
      "ward": 3760,
      "Åį": 3761,
      "ira": 3762,
      "ĠÅŀah": 3763,
      "Ġkavram": 3764,
      "ĠyÃ¼zyÄ±lÄ±n": 3765,
      "ĠKÄ±zÄ±l": 3766,
      "68": 3767,
      "ĠJames": 3768,
      "2018": 3769,
      "ĠÃ¶lÃ§Ã¼": 3770,
      "Ġastr": 3771,
      "ĠVen": 3772,
      "ington": 3773,
      "ĠMacar": 3774,
      "El": 3775,
      "Ã§Ä±sÄ±": 3776,
      "abzon": 3777,
      "ĠÄ°srail": 3778,
      "Ġperformans": 3779,
      "ĠWorld": 3780,
      "ĠÄ°kinci": 3781,
      "olik": 3782,
      "Ġturnuv": 3783,
      "ĠCal": 3784,
      "ove": 3785,
      "urdu": 3786,
      "ife": 3787,
      "2020": 3788,
      "ĠiÃ§erir": 3789,
      "ĠÅŁehrin": 3790,
      "SA": 3791,
      "alarÄ±nÄ±n": 3792,
      "ĠEt": 3793,
      "Ġziyaret": 3794,
      "Ġkolay": 3795,
      "Ġkork": 3796,
      "Ġincel": 3797,
      "ĠKons": 3798,
      "Ġkayn": 3799,
      "Ð¾Ð": 3800,
      "umlar": 3801,
      "ys": 3802,
      "makta": 3803,
      "ocuk": 3804,
      "ĠPan": 3805,
      "Ġiy": 3806,
      "lamak": 3807,
      "ĠMichael": 3808,
      "langÄ±Ã§": 3809,
      "yg": 3810,
      "Ġterc": 3811,
      "anya": 3812,
      "ĠkomÃ¼n": 3813,
      "Ġtakip": 3814,
      "ĠFestivali": 3815,
      "Ġhale": 3816,
      "fa": 3817,
      "idi": 3818,
      "alÄ±ÄŁÄ±": 3819,
      "cm": 3820,
      "ĠkatkÄ±": 3821,
      "yu": 3822,
      "ĠArt": 3823,
      "ĠPolonya": 3824,
      "ĠpaylaÅŁ": 3825,
      "ĠyÃ¶nelik": 3826,
      "ĠsonrasÄ±nda": 3827,
      "99": 3828,
      "ĠTakÄ±m": 3829,
      "Ġfelsef": 3830,
      "umb": 3831,
      "ĠMark": 3832,
      "sch": 3833,
      "Ġ42": 3834,
      "Ġdavran": 3835,
      "ĠBro": 3836,
      "ildiÄŁi": 3837,
      "Ġsub": 3838,
      "izasyon": 3839,
      "Ä±labilir": 3840,
      "ĠbaÅŁarÄ±": 3841,
      "ĠGel": 3842,
      "ĠOrd": 3843,
      "Ġanal": 3844,
      "Ġelem": 3845,
      "ĠyÃ¶r": 3846,
      "ĠyazdÄ±ÄŁÄ±": 3847,
      "ĠYou": 3848,
      "ĠÄ°spanyol": 3849,
      "meyen": 3850,
      "ĠAdalet": 3851,
      "ĠDaÄŁ": 3852,
      "ĠRich": 3853,
      "ĠÃ§alÄ±ÅŁmalarÄ±": 3854,
      "oth": 3855,
      "Ġedebiyat": 3856,
      "Kul": 3857,
      "ilebilir": 3858,
      "ĠSm": 3859,
      "esidir": 3860,
      "Ġdoktor": 3861,
      "kÃ¼n": 3862,
      "ĊĠĊ": 3863,
      "Ġmilletvekilleri": 3864,
      "Ġsilgi": 3865,
      "1999": 3866,
      "ĠkatÄ±lÄ±m": 3867,
      "ĠIII": 3868,
      "ĠMÃĸ": 3869,
      "Ġyani": 3870,
      "ĠKÃ¼ltÃ¼r": 3871,
      "Ġsebep": 3872,
      "ĠGrubu": 3873,
      "Ġvat": 3874,
      "pet": 3875,
      "mayan": 3876,
      "ĠpopÃ¼ler": 3877,
      "Ġbelg": 3878,
      "atlÄ±": 3879,
      "ĠEx": 3880,
      "Ġ1984": 3881,
      "ĠCoun": 3882,
      "ĠÅŁiir": 3883,
      "liÄŁinde": 3884,
      "ĠdÃ¼zey": 3885,
      "ĠEnstitÃ¼sÃ¼": 3886,
      "ĠiÅŁgal": 3887,
      "teri": 3888,
      "uyu": 3889,
      "ĠÃ§Ä±kÄ±ÅŁlÄ±": 3890,
      "Ġparish": 3891,
      "ĠOrt": 3892,
      "mesiyle": 3893,
      "Ġoyuncusu": 3894,
      "mÄ±ÅŁtÄ±": 3895,
      "Ġekip": 3896,
      "ĠÄ°r": 3897,
      "ĠCor": 3898,
      "ĠÃ¶rgÃ¼t": 3899,
      "ĠMes": 3900,
      "uyordu": 3901,
      "Ġcumhur": 3902,
      "ĠTom": 3903,
      "Ġbeyaz": 3904,
      "ĠTor": 3905,
      "Ä±larak": 3906,
      "cÄ±lar": 3907,
      "tul": 3908,
      "yar": 3909,
      "Ġcivil": 3910,
      "Avrupa": 3911,
      "Ġarmut": 3912,
      "Ġ1928": 3913,
      "Ġpsik": 3914,
      "Ġner": 3915,
      "Ek": 3916,
      "Ġdram": 3917,
      "ĠGrup": 3918,
      "ndaki": 3919,
      "Ġ1979": 3920,
      "ĠCam": 3921,
      "ĠMir": 3922,
      "ahraman": 3923,
      "ĠÃ¼lkeler": 3924,
      "ĠbÃ¶lgesinde": 3925,
      "ĠMas": 3926,
      "indows": 3927,
      "ĠsatÄ±n": 3928,
      "tadyum": 3929,
      "ĠyazÄ±lÄ±m": 3930,
      "Ġ1985": 3931,
      "oni": 3932,
      "esk": 3933,
      "47": 3934,
      "ĠLat": 3935,
      "ĠRad": 3936,
      "Ġuzay": 3937,
      "lament": 3938,
      "ĠdeÄŁerlendir": 3939,
      "ĠChrist": 3940,
      "ĠbatÄ±": 3941,
      "antin": 3942,
      "ĠBazÄ±": 3943,
      "eybol": 3944,
      "alarÄ±na": 3945,
      "ĠsÃ¶yledi": 3946,
      "ics": 3947,
      "As": 3948,
      "daÅŁ": 3949,
      "2017": 3950,
      "taki": 3951,
      "iklet": 3952,
      "Ġderece": 3953,
      "Ä°span": 3954,
      "Ġkendisine": 3955,
      "ĠCem": 3956,
      "osa": 3957,
      "ĠÃ§Ã¼nkÃ¼": 3958,
      "ĠverdiÄŁi": 3959,
      "ĠkÃ¼r": 3960,
      "ĠDel": 3961,
      "Ġekonomik": 3962,
      "eter": 3963,
      "Ã¶ren": 3964,
      "Ġdes": 3965,
      "Ġ1982": 3966,
      "ĠHava": 3967,
      "Ðº": 3968,
      "ĠaÅŁam": 3969,
      "yÄ±ldÄ±z": 3970,
      "ÄŁunu": 3971,
      "asi": 3972,
      "ĠbÃ¶lÃ¼mÃ¼": 3973,
      "ony": 3974,
      "Ġ1973": 3975,
      "lardÄ±": 3976,
      "ĠbirleÅŁ": 3977,
      "bert": 3978,
      "ling": 3979,
      "ĠtÃ¼k": 3980,
      "Ġ1975": 3981,
      "ĠOrdu": 3982,
      "Mar": 3983,
      "ain": 3984,
      "ĠnasÄ±l": 3985,
      "ĠolmasÄ±na": 3986,
      "ĠÄ°ki": 3987,
      "ical": 3988,
      "Ġih": 3989,
      "Ġistem": 3990,
      "que": 3991,
      "ĠoluÅŁur": 3992,
      "ĠCity": 3993,
      "ĠyabancÄ±": 3994,
      "1998": 3995,
      "98": 3996,
      "bur": 3997,
      "andaÅŁ": 3998,
      "ĠHÃ¼s": 3999,
      "mada": 4000,
      "rit": 4001,
      "ĠLu": 4002,
      "undaki": 4003,
      "iddet": 4004,
      "ĠMag": 4005,
      "ĠLin": 4006,
      "Ġakadem": 4007,
      "Ġalarak": 4008,
      "ĠPal": 4009,
      "ĠtaÅŁÄ±y": 4010,
      "ĠNehri": 4011,
      "Ġsebeb": 4012,
      "ĠAdam": 4013,
      "Ä±nar": 4014,
      "ĠMÃ¼dÃ¼r": 4015,
      "Ġ1974": 4016,
      "Tek": 4017,
      "ĠDo": 4018,
      "abÄ±": 4019,
      "Ġby": 4020,
      "olf": 4021,
      "Ġbab": 4022,
      "Ġparti": 4023,
      "NGC": 4024,
      "ĠYahud": 4025,
      "Ġ1983": 4026,
      "ilerine": 4027,
      "ĠDiÄŁer": 4028,
      "ĠoluÅŁturulan": 4029,
      "OsmanlÄ±": 4030,
      "engin": 4031,
      "ahim": 4032,
      "layarak": 4033,
      "fesÃ¶r": 4034,
      "bey": 4035,
      "ĠdoÄŁu": 4036,
      "Ġkomp": 4037,
      "ĠWal": 4038,
      "ĠkÄ±smÄ±": 4039,
      "ĠbileÅŁ": 4040,
      "ure": 4041,
      "ĠErz": 4042,
      "Ġ41": 4043,
      "iyer": 4044,
      "ĠYayÄ±nlarÄ±": 4045,
      "arÄ±nda": 4046,
      "Ġism": 4047,
      "hane": 4048,
      "ĠmÃ¼": 4049,
      "1996": 4050,
      "Ġbirinci": 4051,
      "ĠalanÄ±nda": 4052,
      "say": 4053,
      "ronik": 4054,
      "2019": 4055,
      "ĠYardÄ±m": 4056,
      "ĠSÃ¼per": 4057,
      "nu": 4058,
      "Ġ1972": 4059,
      "Ä±sÄ±nÄ±n": 4060,
      "ix": 4061,
      "stein": 4062,
      "inae": 4063,
      "ĠAvusturya": 4064,
      "Ġileri": 4065,
      "ĠdirektÃ¶rleri": 4066,
      "Kad": 4067,
      "Ġortal": 4068,
      "ĠTok": 4069,
      "luÄŁunda": 4070,
      "we": 4071,
      "Ġ2023": 4072,
      "Ġtav": 4073,
      "46": 4074,
      "ĠAraÅŁtÄ±r": 4075,
      "Ã§Ä±k": 4076,
      "ĠTun": 4077,
      "lÄ±lÄ±k": 4078,
      "cistan": 4079,
      "lom": 4080,
      "Ġcis": 4081,
      "ĠSeÃ§": 4082,
      "ĠKuvvetleri": 4083,
      "ÄŁa": 4084,
      "Ġolsa": 4085,
      "GÃ¼ney": 4086,
      "Ġ43": 4087,
      "Ä°ngilizce": 4088,
      "iktaÅŁ": 4089,
      "Ġkesin": 4090,
      "ĠMuhammed": 4091,
      "ĠBerlin": 4092,
      "dÃ¼ncÃ¼": 4093,
      "ĠartÄ±k": 4094,
      "ĠAvustralya": 4095,
      "ĠalÄ±ndÄ±": 4096,
      "lip": 4097,
      "Ġtoplan": 4098,
      "iel": 4099,
      "ĠResmi": 4100,
      "ĠEÄŁitim": 4101,
      "rat": 4102,
      "ĠstÃ¼d": 4103,
      "Kan": 4104,
      "ezi": 4105,
      "anik": 4106,
      "Le": 4107,
      "lad": 4108,
      "meleri": 4109,
      "ĠPhil": 4110,
      "ĠkÄ±": 4111,
      "Ã§ak": 4112,
      "ĠhastalÄ±k": 4113,
      "esindeki": 4114,
      "ora": 4115,
      "oda": 4116,
      "yellow": 4117,
      "Ġ1976": 4118,
      "ĠDerneÄŁi": 4119,
      "ksiyon": 4120,
      "itt": 4121,
      "madÄ±": 4122,
      "iyel": 4123,
      "ĉĠĊ": 4124,
      "eydi": 4125,
      "nes": 4126,
      "ĠGÃ¶l": 4127,
      "ĠBÃ¶lgesi": 4128,
      "Ġmimar": 4129,
      "lediÄŁi": 4130,
      "Ġcihaz": 4131,
      "Ġbelirli": 4132,
      "tep": 4133,
      "arken": 4134,
      "ĠÎ": 4135,
      "ĠÃ¼zerindeki": 4136,
      "Ġsim": 4137,
      "jantin": 4138,
      "ĠYunanistan": 4139,
      "ĠĊĠĊĠĊĠĊ": 4140,
      "Ġkariyerine": 4141,
      "Ġmec": 4142,
      "Ġbeste": 4143,
      "Ġpara": 4144,
      "ĠYahudi": 4145,
      "ĠHÃ¼k": 4146,
      "Ġbitki": 4147,
      "ool": 4148,
      "Ä±rÄ±m": 4149,
      "Ġcinsine": 4150,
      "ĠSah": 4151,
      "ĠarasÄ±": 4152,
      "ĠGar": 4153,
      "iforniya": 4154,
      "ĠcanlÄ±": 4155,
      "yap": 4156,
      "ĠyapmÄ±ÅŁ": 4157,
      "58": 4158,
      "Ġdemir": 4159,
      "Ġ1978": 4160,
      "astik": 4161,
      "lukla": 4162,
      "ago": 4163,
      "tandart": 4164,
      "erkes": 4165,
      "larÄ±ndaki": 4166,
      "Ġressam": 4167,
      "49": 4168,
      "sim": 4169,
      "Ġbes": 4170,
      "ĠGaz": 4171,
      "asaray": 4172,
      "osy": 4173,
      "ida": 4174,
      "tiÄŁini": 4175,
      "atasaray": 4176,
      "ĠKÄ±brÄ±s": 4177,
      "dikten": 4178,
      "ĠEski": 4179,
      "Ä±sÄ±z": 4180,
      "go": 4181,
      "ĠUkrayna": 4182,
      "ĠMod": 4183,
      "tis": 4184,
      "ĠKanada": 4185,
      "oft": 4186,
      "Ġmit": 4187,
      "ited": 4188,
      "ĠRecord": 4189,
      "ĠJack": 4190,
      "imark": 4191,
      "ĠVan": 4192,
      "iet": 4193,
      "aph": 4194,
      "ĠDok": 4195,
      "ĠdÃ¼nyanÄ±n": 4196,
      "ĠmÃ¼hendis": 4197,
      "ĠVak": 4198,
      "ĠayÄ±r": 4199,
      "Ġ1981": 4200,
      "pek": 4201,
      "amak": 4202,
      "Ankara": 4203,
      "ike": 4204,
      "ĠKurulu": 4205,
      "ĠThom": 4206,
      "In": 4207,
      "Ġastronom": 4208,
      "ĠFor": 4209,
      "1992": 4210,
      "inler": 4211,
      "ilerinin": 4212,
      "kova": 4213,
      "Ġbuz": 4214,
      "ÄŁine": 4215,
      "Ã§esi": 4216,
      "ĠAlex": 4217,
      "79": 4218,
      "ĠIrak": 4219,
      "ĠkiÅŁinin": 4220,
      "ĠvatandaÅŁ": 4221,
      "ĠFrank": 4222,
      "Ä±f": 4223,
      "Ġelektrik": 4224,
      "Ä±rlar": 4225,
      "Ġ1971": 4226,
      "ukarÄ±": 4227,
      "ĠkurulmuÅŁtur": 4228,
      "ĠSovyetler": 4229,
      "Ġmilletvekili": 4230,
      "los": 4231,
      "yse": 4232,
      "ĠadÄ±na": 4233,
      "6600": 4234,
      "dÄ±ktan": 4235,
      "ĠmÃ¼m": 4236,
      "Ġbahs": 4237,
      "ĠbakÄ±m": 4238,
      "akistan": 4239,
      "Ä°l": 4240,
      "ĠOsman": 4241,
      "Ġ1977": 4242,
      "1997": 4243,
      "ĠWar": 4244,
      "ĠdeÄŁiÅŁiklik": 4245,
      "TA": 4246,
      "Ġfir": 4247,
      "Ġhesap": 4248,
      "ĠBah": 4249,
      "ĠBoy": 4250,
      "ĠyapÄ±lmÄ±ÅŁtÄ±r": 4251,
      "gÃ¼": 4252,
      "ĠPortekiz": 4253,
      "egor": 4254,
      "ĠLib": 4255,
      "ĠHindistan": 4256,
      "ĠPark": 4257,
      "rah": 4258,
      "ĠĊĠ": 4259,
      "Ulus": 4260,
      "8000": 4261,
      "Ġkonser": 4262,
      "Ä±ÅŁtÄ±": 4263,
      "isidir": 4264,
      "ĠdoÄŁrudan": 4265,
      "Konusu": 4266,
      "lÄ±klÄ±": 4267,
      "ĠTak": 4268,
      "ĠFat": 4269,
      "ayi": 4270,
      "Ġgeleneksel": 4271,
      "ban": 4272,
      "elt": 4273,
      "aÄŁa": 4274,
      "ĠÅŁiddet": 4275,
      "teki": 4276,
      "ĠKara": 4277,
      "ĠÃĸrneÄŁin": 4278,
      "ĠUniversit": 4279,
      "ĠkÃ¼m": 4280,
      "ĠEyal": 4281,
      "ĠyÃ¶nÃ¼nde": 4282,
      "Ġkomedi": 4283,
      "cusu": 4284,
      "Ġkop": 4285,
      "iller": 4286,
      "ĠTaÅŁ": 4287,
      "1994": 4288,
      "ĠKut": 4289,
      "ĠÃĩal": 4290,
      "ĠErmen": 4291,
      "ois": 4292,
      "mm": 4293,
      "bon": 4294,
      "ĠPap": 4295,
      "nam": 4296,
      "mann": 4297,
      "Ġtarihleri": 4298,
      "ĠBelediyesi": 4299,
      "lass": 4300,
      "Ġ1968": 4301,
      "ĠsatÄ±ÅŁ": 4302,
      "Ä±rken": 4303,
      "Ġins": 4304,
      "Ġtahmin": 4305,
      "eÄŁi": 4306,
      "ĠÅŁirketi": 4307,
      "Ġinternet": 4308,
      "Ġdeste": 4309,
      "elerinden": 4310,
      "ĠtanrÄ±": 4311,
      "rich": 4312,
      "ĠMem": 4313,
      "ĠbaÄŁlantÄ±": 4314,
      "ĠAir": 4315,
      "ĠNik": 4316,
      "ĠÃĩek": 4317,
      "ies": 4318,
      "Rom": 4319,
      "ĠBill": 4320,
      "ĠÃ¶lÃ§Ã¼de": 4321,
      "Ġval": 4322,
      "ugh": 4323,
      "ĠgurbetÃ§iler": 4324,
      "Ġvon": 4325,
      "ĠyazdÄ±": 4326,
      "ĠTe": 4327,
      "1995": 4328,
      "ĠmaÃ§Ä±nda": 4329,
      "Ġmatematik": 4330,
      "akk": 4331,
      "etin": 4332,
      "ĠmÃ¼mkÃ¼n": 4333,
      "Gal": 4334,
      "Ġmetal": 4335,
      "ax": 4336,
      "1980": 4337,
      "Ġ(),": 4338,
      "ĠbaÅŁkenti": 4339,
      "pt": 4340,
      "Ã¼kle": 4341,
      "Ġmiktar": 4342,
      "altÄ±": 4343,
      "ĠdaÄŁÄ±t": 4344,
      "Ġveri": 4345,
      "ĠyerleÅŁtir": 4346,
      "by": 4347,
      "ĠaraÅŁtÄ±rma": 4348,
      "aÄŁan": 4349,
      "Ġstat": 4350,
      "Ġyum": 4351,
      "ĠyÃ¶nettiÄŁi": 4352,
      "Pol": 4353,
      "ĠseÃ§men": 4354,
      "Ġpolis": 4355,
      "Ġmutf": 4356,
      "alara": 4357,
      "69": 4358,
      "Ã¼ndeki": 4359,
      "maktaydÄ±": 4360,
      "ever": 4361,
      "Ġhip": 4362,
      "afer": 4363,
      "ĠyÃ¼zey": 4364,
      "ĠCez": 4365,
      "ĠKÃ¼Ã§Ã¼k": 4366,
      "lÄ±kla": 4367,
      "ehrin": 4368,
      "ĠkiÅŁilik": 4369,
      "ato": 4370,
      "ĠCharles": 4371,
      "ĠÅŁarkÄ±sÄ±": 4372,
      "Ġkurtar": 4373,
      "ole": 4374,
      "ĠComp": 4375,
      "Ġmens": 4376,
      "lÄ±ÄŁa": 4377,
      "ĠHukuk": 4378,
      "Ġindir": 4379,
      "ĠgÃ¶k": 4380,
      "ĠbasÄ±n": 4381,
      "imiz": 4382,
      "Ã¢h": 4383,
      "Ġticaret": 4384,
      "arr": 4385,
      "ÄŁÄ±na": 4386,
      "ĠDevleti": 4387,
      "RT": 4388,
      "ĠDÄ±ÅŁ": 4389,
      "ĠGÃ¼l": 4390,
      "Ġvokal": 4391,
      "ĠRum": 4392,
      "Ġ1969": 4393,
      "baÅŁkanÄ±": 4394,
      "At": 4395,
      "ald": 4396,
      "ĠFeder": 4397,
      "ĠBot": 4398,
      "Ġvur": 4399,
      "Ã¶lÃ§": 4400,
      "baÅŁÄ±": 4401,
      "ĠkarÅŁÄ±lÄ±k": 4402,
      "isar": 4403,
      "ĠArnavut": 4404,
      "brahim": 4405,
      "adir": 4406,
      "iyorum": 4407,
      "ĠAkademisi": 4408,
      "Ġ55": 4409,
      "Ġciv": 4410,
      "amadÄ±": 4411,
      "Ä±rvat": 4412,
      "ĠSÃ¼r": 4413,
      "Ä±dÄ±r": 4414,
      "Yunan": 4415,
      "Ġordus": 4416,
      "ĠÃ¶ÄŁretim": 4417,
      "ĠGeorge": 4418,
      "Ð»": 4419,
      "Ä°k": 4420,
      "ĠGÃ¼rcÃ¼": 4421,
      "ĠtartÄ±ÅŁ": 4422,
      "ĠWe": 4423,
      "Ġbor": 4424,
      "Ġsiyah": 4425,
      "ĠBol": 4426,
      "Ġ(\"": 4427,
      "Ġsekiz": 4428,
      "\")": 4429,
      "off": 4430,
      "Ġnerede": 4431,
      "Ġlisans": 4432,
      "Ġ1950": 4433,
      "Ġhalinde": 4434,
      "ĠdÃ¶nemi": 4435,
      "Ġplat": 4436,
      "Ġkendini": 4437,
      "Ġprot": 4438,
      "isa": 4439,
      "ĠhikÃ¢y": 4440,
      "liÄŁe": 4441,
      "ĠiÅŁaret": 4442,
      "67": 4443,
      "ĠkanÄ±t": 4444,
      "Ġ54": 4445,
      "hat": 4446,
      "ail": 4447,
      "tay": 4448,
      "Ġlim": 4449,
      "ny": 4450,
      "ĠgÃ¶sterir": 4451,
      "alog": 4452,
      "Ġstr": 4453,
      "Ġeyaletinde": 4454,
      "ĠAkdeniz": 4455,
      "ĠÃ§alÄ±ÅŁma": 4456,
      "Ġerken": 4457,
      "Ġbomb": 4458,
      "ala": 4459,
      "1993": 4460,
      "ĠJean": 4461,
      "Ġyeri": 4462,
      "Ġfonksiyon": 4463,
      "Ġzengin": 4464,
      "ijinal": 4465,
      "ĠÄ±ÅŁÄ±k": 4466,
      "acÄ±lÄ±k": 4467,
      "lÄ±nda": 4468,
      "Ġbenim": 4469,
      "cileri": 4470,
      "ĠPress": 4471,
      "Ġkasab": 4472,
      "Ġ1967": 4473,
      "atÃ¼rk": 4474,
      "Ġmin": 4475,
      "Ġmon": 4476,
      "Ġilinde": 4477,
      "Ġidari": 4478,
      "ĠgeÃ§mektedir": 4479,
      "BC": 4480,
      "ĠbaÅŁbak": 4481,
      "Ġdefa": 4482,
      "ĠWindows": 4483,
      "culuk": 4484,
      "ĠFinal": 4485,
      "ĠuÃ§uÅŁ": 4486,
      "iplom": 4487,
      "ĠkullanÄ±cÄ±": 4488,
      "ĠHollanda": 4489,
      "ĠUEFA": 4490,
      "Ġsergil": 4491,
      "Ġsenar": 4492,
      "Ã¶rt": 4493,
      "85": 4494,
      "deri": 4495,
      "Ġetmeye": 4496,
      "ĠbugÃ¼n": 4497,
      "eliÄŁi": 4498,
      "kÄ±nma": 4499,
      "Ä±nca": 4500,
      "lanma": 4501,
      "Ġdurumu": 4502,
      "ÄŁret": 4503,
      "tepe": 4504,
      "Ġoran": 4505,
      "ĠBaÄŁÄ±msÄ±z": 4506,
      "ullah": 4507,
      "ĠDiv": 4508,
      "ĠkoÅŁul": 4509,
      "oyun": 4510,
      "Ġotur": 4511,
      "Ġyoktur": 4512,
      "ĠBununla": 4513,
      "ĠyÄ±lÄ±nÄ±n": 4514,
      "ĠMeclisi": 4515,
      "Ġeg": 4516,
      "ĠtakÄ±myÄ±ldÄ±z": 4517,
      "ĠÄ°nsan": 4518,
      "100": 4519,
      "ĠOp": 4520,
      "laÅŁmasÄ±": 4521,
      "Ã¼ÄŁ": 4522,
      "ĠTiyatro": 4523,
      "MS": 4524,
      "isinden": 4525,
      "lenmesi": 4526,
      "Ġkons": 4527,
      "Ġharek": 4528,
      "63": 4529,
      "Ġ75": 4530,
      "rid": 4531,
      "Ġbirey": 4532,
      "ĠÅŁarkÄ±lar": 4533,
      "Ġtest": 4534,
      "ilt": 4535,
      "ett": 4536,
      "ĠkÃ¶k": 4537,
      "viÃ§re": 4538,
      "ĠsoÄŁ": 4539,
      "Ġsok": 4540,
      "ĠsÃ¼rekli": 4541,
      "ĠÃ¶ne": 4542,
      "ĠtÃ¼rÃ¼": 4543,
      "debiyat": 4544,
      "ĠAlan": 4545,
      "amb": 4546,
      "ĠHa": 4547,
      "ĠMÃ¼zesi": 4548,
      "Ã§u": 4549,
      "ĠyayÄ±mlanan": 4550,
      "Ġyolu": 4551,
      "Ġtr": 4552,
      "Ġkonusu": 4553,
      "ĠdÃ¼nyaya": 4554,
      "Ġyerini": 4555,
      "ĠdÄ±ÅŁÄ±": 4556,
      "ĠTopl": 4557,
      "San": 4558,
      "ĠSonuÃ§lar": 4559,
      "uri": 4560,
      "lamÄ±ÅŁtÄ±r": 4561,
      "Ġdi": 4562,
      "ĠaltÄ±na": 4563,
      "Ã¼ny": 4564,
      "ekret": 4565,
      "ati": 4566,
      "ĠSaÄŁ": 4567,
      "Ġip": 4568,
      "2022": 4569,
      "Ġkaf": 4570,
      "ĠaÅŁaÄŁÄ±daki": 4571,
      "Kaz": 4572,
      "Ġ65": 4573,
      "Ġyoluyla": 4574,
      "ĠgÃ¼nÃ¼mÃ¼zde": 4575,
      "isiklet": 4576,
      "bilir": 4577,
      "ĠBank": 4578,
      "lidir": 4579,
      "ĠDemokratik": 4580,
      "any": 4581,
      "ĠstÃ¼dyo": 4582,
      "ĠSab": 4583,
      "ĠaÃ§Ä±": 4584,
      "ux": 4585,
      "ĠsaÄŁlar": 4586,
      "ĠBelediye": 4587,
      "ĠRichard": 4588,
      "car": 4589,
      "ĠTrabzon": 4590,
      "Ġetkili": 4591,
      "Ġah": 4592,
      "ĠsÃ¼reÃ§": 4593,
      "ĠyayÄ±nladÄ±": 4594,
      "Ġtercih": 4595,
      "Ġsayesinde": 4596,
      "Ġsporcular": 4597,
      "Ġeylem": 4598,
      "ĠbirleÅŁtir": 4599,
      "Ġ1965": 4600,
      "ĠUniversity": 4601,
      "ĠRecords": 4602,
      ";\"": 4603,
      "Ġhep": 4604,
      "74": 4605,
      "ĠErkek": 4606,
      "ima": 4607,
      "Ġsahne": 4608,
      "1991": 4609,
      "Ġ1966": 4610,
      "elli": 4611,
      "isyonu": 4612,
      "ĠÃľniversitesinde": 4613,
      "landalÄ±": 4614,
      "Ġorijinal": 4615,
      "Ġdiye": 4616,
      "urgu": 4617,
      "ĠMuhareb": 4618,
      "ĠSup": 4619,
      "Ġpil": 4620,
      "mekte": 4621,
      "Ġtipi": 4622,
      "ild": 4623,
      "Ġkullanarak": 4624,
      "ĠgÃ¶revi": 4625,
      "ella": 4626,
      "Ġedilmektedir": 4627,
      "ĠseÃ§imleri": 4628,
      "ĠAngeles": 4629,
      "lub": 4630,
      "ĠkarÅŁÄ±sÄ±nda": 4631,
      "Ä±sa": 4632,
      "Ġkapat": 4633,
      "essa": 4634,
      "abilecek": 4635,
      "ĠPeter": 4636,
      "ĠBuna": 4637,
      "ĠJul": 4638,
      "orf": 4639,
      "ĠLou": 4640,
      "cus": 4641,
      "HayatÄ±": 4642,
      "ĠOs": 4643,
      "ĠÃ§oÄŁ": 4644,
      "89": 4645,
      "ĠonlarÄ±": 4646,
      "Ġortam": 4647,
      "daÄŁ": 4648,
      "ĠyÃ¼zden": 4649,
      "Ġsunu": 4650,
      "ĠGÃ¼rcistan": 4651,
      "line": 4652,
      "ĠSak": 4653,
      "aff": 4654,
      "ĠCami": 4655,
      "ĠtaÅŁÄ±yan": 4656,
      "Ġmalzem": 4657,
      "kÃ¶y": 4658,
      "ect": 4659,
      "Ã§ika": 4660,
      "Ġgaz": 4661,
      "able": 4662,
      "abrik": 4663,
      "rafik": 4664,
      "Ġmas": 4665,
      "no": 4666,
      "Ġnormal": 4667,
      "Resim": 4668,
      "iyeri": 4669,
      "tip": 4670,
      "enz": 4671,
      "ĠJon": 4672,
      "menin": 4673,
      "ese": 4674,
      "Ġdonan": 4675,
      "acÄ±k": 4676,
      "icros": 4677,
      "Ġ(?": 4678,
      "Ġtutuk": 4679,
      "ĠNorveÃ§": 4680,
      "vin": 4681,
      "Ġef": 4682,
      "ĠmaÃ§Ä±": 4683,
      "ase": 4684,
      "Â°": 4685,
      "erler": 4686,
      "enek": 4687,
      "Ġkendisi": 4688,
      "ĠgruplarÄ±": 4689,
      "Ġ1945": 4690,
      "akÄ±r": 4691,
      "ĠSÃ¶z": 4692,
      "Ġisyan": 4693,
      "ball": 4694,
      "Ġdiy": 4695,
      "ĠKir": 4696,
      "Ġaranan": 4697,
      "nan": 4698,
      "ĠsandÄ±k": 4699,
      "cis": 4700,
      "liÄŁine": 4701,
      "Ġdek": 4702,
      "ĠGÃ¼neÅŁ": 4703,
      "mon": 4704,
      "Ġvak": 4705,
      "Ġodak": 4706,
      "ky": 4707,
      "ĠDar": 4708,
      "ĠSaint": 4709,
      "Ġdevr": 4710,
      "cÄ±larÄ±": 4711,
      "ĠMeks": 4712,
      "ĠOkulu": 4713,
      "blem": 4714,
      "uman": 4715,
      "ĠadÄ±nda": 4716,
      "ĠDur": 4717,
      "ĠmÃ¼ziÄŁi": 4718,
      "Avus": 4719,
      "ĠkayÄ±tlarÄ±nda": 4720,
      "ĠFenerbahÃ§e": 4721,
      "Ġkendisini": 4722,
      "sur": 4723,
      "yc": 4724,
      "Ġ1964": 4725,
      "ĠKomut": 4726,
      "ÉĻ": 4727,
      "Ġaktiv": 4728,
      "ĠKrallÄ±ÄŁÄ±": 4729,
      "1970": 4730,
      "Ã³n": 4731,
      "05": 4732,
      "ĠbalÄ±k": 4733,
      "ĠPas": 4734,
      "ĠaÃ§Ä±kladÄ±": 4735,
      "okrat": 4736,
      "ĠgÃ¶steren": 4737,
      "Ġterk": 4738,
      "Ġ81": 4739,
      "Ġaktar": 4740,
      "Ġonay": 4741,
      "ĠtarÄ±m": 4742,
      "ĠBaÅŁbak": 4743,
      "ĠÃ¶ncesi": 4744,
      "ĠayrÄ±l": 4745,
      "ĠAmeri": 4746,
      "Ġetraf": 4747,
      "ĠLos": 4748,
      "ĠkurulmuÅŁ": 4749,
      "Ġede": 4750,
      "Ġsorumlu": 4751,
      "ĠsÃ¶ylem": 4752,
      "ĠkitabÄ±": 4753,
      "ĠKen": 4754,
      "Ġkategor": 4755,
      "ĠarkadaÅŁÄ±": 4756,
      "ĠBab": 4757,
      "ĠDa": 4758,
      "ĠOrdusu": 4759,
      "icrosoft": 4760,
      "lamasÄ±": 4761,
      "ech": 4762,
      "Ġsap": 4763,
      "OS": 4764,
      "Ġoynanan": 4765,
      "Ġderin": 4766,
      "bil": 4767,
      "Ġyedi": 4768,
      "Ġdans": 4769,
      "ivas": 4770,
      "Af": 4771,
      "Ġgezeg": 4772,
      "don": 4773,
      "Ġyasak": 4774,
      "ĠakÄ±m": 4775,
      "ĠeÄŁitimi": 4776,
      "illiyetÃ§i": 4777,
      "Ġradyo": 4778,
      "ID": 4779,
      "ĠTal": 4780,
      "ĠBaÅŁkanlÄ±ÄŁÄ±": 4781,
      "ĠhÃ¼cr": 4782,
      "ĠkazanmÄ±ÅŁtÄ±r": 4783,
      "Ġduvar": 4784,
      "Ġazal": 4785,
      "raz": 4786,
      "ĠTanrÄ±": 4787,
      "Kal": 4788,
      "Ã§isi": 4789,
      "Ã¼mcek": 4790,
      "ĠĊĊĠĊ": 4791,
      "mo": 4792,
      "ĠKÃ¼t": 4793,
      "ĠÃĸzel": 4794,
      "oto": 4795,
      "miÅŁti": 4796,
      "Ġetkilen": 4797,
      "ĠfarkÄ±": 4798,
      "Ġpazar": 4799,
      "ĠayrÄ±ldÄ±": 4800,
      "tifak": 4801,
      "Ġkamu": 4802,
      "ĠbÃ¶lgede": 4803,
      "ks": 4804,
      "etim": 4805,
      "edilen": 4806,
      "Bil": 4807,
      "Ġday": 4808,
      "elle": 4809,
      "ings": 4810,
      "Ġ1961": 4811,
      "aÅŁÄ±k": 4812,
      "Almanya": 4813,
      "Ġcam": 4814,
      "ĠÃ§ocuÄŁu": 4815,
      "oÄŁol": 4816,
      "Ġant": 4817,
      "ĠbÃ¶lgesi": 4818,
      "Ġrock": 4819,
      "ouse": 4820,
      "Å¡": 4821,
      "Ġaks": 4822,
      "Ġyazarlar": 4823,
      "arlÄ±": 4824,
      "ĠÅŁim": 4825,
      "Ġmuhtem": 4826,
      "ĠMoskova": 4827,
      "Ġhakim": 4828,
      "ĠBeÅŁiktaÅŁ": 4829,
      "ĠAydÄ±n": 4830,
      "ĠgÃ¼c": 4831,
      "ĠeÅŁi": 4832,
      "lÃ¢": 4833,
      "ĠSy": 4834,
      "ĠKalkÄ±nma": 4835,
      "ĠBeyaz": 4836,
      "baÅŁkan": 4837,
      "Ġalmak": 4838,
      "tadan": 4839,
      "Ġaktif": 4840,
      "tain": 4841,
      "ĠtakÄ±myÄ±ldÄ±zÄ±": 4842,
      "Ġac": 4843,
      "Ã¼ley": 4844,
      "ĠÃ¶zgÃ¼r": 4845,
      "Ã¼mÃ¼zde": 4846,
      "Ġetkinlik": 4847,
      "nÃ¼": 4848,
      "Ġdu": 4849,
      "mel": 4850,
      "ĠPlan": 4851,
      "Ġdurumda": 4852,
      "97": 4853,
      "Pr": 4854,
      "ayken": 4855,
      "aly": 4856,
      "Ġresim": 4857,
      "08": 4858,
      "ope": 4859,
      "lÄ±ÄŁÄ±n": 4860,
      "ĠbaskÄ±": 4861,
      "ĠDen": 4862,
      "Ġgitti": 4863,
      "ĠaracÄ±lÄ±ÄŁÄ±": 4864,
      "Ġ1963": 4865,
      "ĠDin": 4866,
      "gun": 4867,
      "ric": 4868,
      "tÄ±lÄ±": 4869,
      "94": 4870,
      "acaktÄ±r": 4871,
      "so": 4872,
      "arlÄ±ÄŁÄ±": 4873,
      "abak": 4874,
      "Ġbirim": 4875,
      "olis": 4876,
      "ĠyapÄ±lmÄ±ÅŁ": 4877,
      "ĠkalÄ±": 4878,
      "add": 4879,
      "alÄ±dÄ±r": 4880,
      "ayla": 4881,
      "ĠProf": 4882,
      "Ġkentinde": 4883,
      "Ġatan": 4884,
      "ĠSey": 4885,
      "Ġalg": 4886,
      "ĠilÃ§esinde": 4887,
      "ĠWeb": 4888,
      "Ġetkisi": 4889,
      "ref": 4890,
      "AÅŁ": 4891,
      "Port": 4892,
      "Ä±ydÄ±": 4893,
      "sar": 4894,
      "New": 4895,
      "ĠErmeni": 4896,
      "kas": 4897,
      "Ġannesi": 4898,
      "usuf": 4899,
      "Ġorman": 4900,
      "ĠAbd": 4901,
      "Ġotomobil": 4902,
      "Ġenerji": 4903,
      "Ġdo": 4904,
      "Ġkorun": 4905,
      "Man": 4906,
      "ii": 4907,
      "anÄ±ÅŁ": 4908,
      "yasal": 4909,
      "ĠsÃ¼ren": 4910,
      "ĠÃĩocuk": 4911,
      "Ã§ev": 4912,
      "ĠFar": 4913,
      "Ġ(?-": 4914,
      "ĠgeÃ§irdi": 4915,
      "Ġbilimsel": 4916,
      "Sh": 4917,
      "ĠÃ§Ä±kmÄ±ÅŁtÄ±r": 4918,
      "Ġhiss": 4919,
      "ĠCHP": 4920,
      "Ġmadde": 4921,
      "BÃ¶l": 4922,
      "alandÄ±": 4923,
      "ĠHasan": 4924,
      "ĠGeÃ§ersiz": 4925,
      "ĠattÄ±": 4926,
      "amet": 4927,
      "ĠGÃ¼ven": 4928,
      "Ġruh": 4929,
      "Ġordusu": 4930,
      "bin": 4931,
      "ĠHist": 4932,
      "abet": 4933,
      "ube": 4934,
      "ĠkullanÄ±lmaktadÄ±r": 4935,
      "ĠsayÄ±mÄ±na": 4936,
      "ĠGÃ¶z": 4937,
      "ĠPo": 4938,
      "lÄ±klar": 4939,
      "Ġyenil": 4940,
      "2021": 4941,
      "ear": 4942,
      "ĠTour": 4943,
      "dikleri": 4944,
      "Ġmu": 4945,
      "ĠÅŀirket": 4946,
      "Ġfak": 4947,
      "lÄ±ca": 4948,
      "ĠaÃ§Ä±sÄ±ndan": 4949,
      "dit": 4950,
      "Ġkayded": 4951,
      "ĠÃ¶ÄŁretmen": 4952,
      "aÄŁÄ±n": 4953,
      "ĠCO": 4954,
      "1988": 4955,
      "ĠbasketbolcularÄ±": 4956,
      "ĠKÃ¼rt": 4957,
      "iro": 4958,
      "ors": 4959,
      "Ġhala": 4960,
      "ĠyÃ¶netimi": 4961,
      "61": 4962,
      "84": 4963,
      "Ġsivil": 4964,
      "att": 4965,
      "Hol": 4966,
      "Mac": 4967,
      "ĠAst": 4968,
      "ĠÅŁarkÄ±cÄ±larÄ±": 4969,
      "Ġdini": 4970,
      "ko": 4971,
      "ĠÅŁehirdir": 4972,
      "Ġbazen": 4973,
      "Ġbuna": 4974,
      "ĠPrens": 4975,
      "Ã¼stÃ¼": 4976,
      "ĠyavaÅŁ": 4977,
      "iver": 4978,
      "Ġmaddeleri": 4979,
      "ipp": 4980,
      "udu": 4981,
      "Ġbirimleri": 4982,
      "Ġpr": 4983,
      "Th": 4984,
      "1989": 4985,
      "ayÄ±sÄ±yla": 4986,
      "Ġneredeyse": 4987,
      "ĠyapÄ±lÄ±r": 4988,
      "Ġdiren": 4989,
      "kÃ¼r": 4990,
      "aladÄ±": 4991,
      "ĠLove": 4992,
      "ĠyÃ¶netic": 4993,
      "Genel": 4994,
      "Ä±ndÄ±r": 4995,
      "ĠSamsun": 4996,
      "DÃ¼nya": 4997,
      "ĠiÅŁlev": 4998,
      "Ġaile": 4999,
      "87": 5000,
      "ĠÄ°brahim": 5001,
      "ĠgelmiÅŁtir": 5002,
      "Ġkaydet": 5003,
      "tuÄŁu": 5004,
      "ĠdoÄŁrul": 5005,
      "ĠoluÅŁturul": 5006,
      "ĠsÃ¶yler": 5007,
      "ĠYerel": 5008,
      "ÅŁe": 5009,
      "itz": 5010,
      "92": 5011,
      "elerden": 5012,
      "esli": 5013,
      "ĠGazet": 5014,
      "ĠLisesi": 5015,
      "lec": 5016,
      "Ġgece": 5017,
      "ĠKilisesi": 5018,
      "Ġmi": 5019,
      "ĠYas": 5020,
      "ĠCounty": 5021,
      "ĠbÃ¶ylece": 5022,
      "Ġinc": 5023,
      "ĠPlay": 5024,
      "Ġstandart": 5025,
      "ezya": 5026,
      "ĠAnn": 5027,
      "ĠHaned": 5028,
      "ĠGalatasaray": 5029,
      "Ġbal": 5030,
      "Ä°z": 5031,
      "ĠkullanÄ±lmÄ±ÅŁtÄ±r": 5032,
      "ĠkÄ±yÄ±": 5033,
      "Ġdili": 5034,
      "ĠYo": 5035,
      "Ġfikir": 5036,
      "ĠinsanlarÄ±": 5037,
      "bas": 5038,
      "Ġteslim": 5039,
      "ÄŁÄ±ndan": 5040,
      "ĠDil": 5041,
      "ĠbÃ¶lÃ¼mÃ¼nde": 5042,
      "ĠdÃ¶rdÃ¼ncÃ¼": 5043,
      "ĠGrand": 5044,
      "jen": 5045,
      "ĠkuÅŁat": 5046,
      "ĠsÄ±nÄ±rlarÄ±": 5047,
      "ĠmadalyalÄ±": 5048,
      "bek": 5049,
      "ĠmÃ¼zisyen": 5050,
      "Ġdiplom": 5051,
      "ĠLi": 5052,
      "La": 5053,
      "ĠHareket": 5054,
      "lÄ±ÅŁ": 5055,
      "nÃ¼n": 5056,
      "ĠsaÄŁlamak": 5057,
      "ĠyÄ±lÄ±ndaki": 5058,
      "eliÄŁ": 5059,
      "Ġpan": 5060,
      "54": 5061,
      "ĠsÄ±rasÄ±yla": 5062,
      "Ġkont": 5063,
      "ĠKaliforniya": 5064,
      "DoÄŁ": 5065,
      "ĠhayatÄ±nÄ±": 5066,
      "ĠĉĠĊ": 5067,
      "ĠSezon": 5068,
      "ĠBilim": 5069,
      "ĠStar": 5070,
      "ĠsaÄŁlayan": 5071,
      "stir": 5072,
      "ĠolmadÄ±ÄŁÄ±": 5073,
      "96": 5074,
      "ĠVar": 5075,
      "ĠkÃ¶kenli": 5076,
      "doÄŁu": 5077,
      "ĠOb": 5078,
      "ĠYÄ±ldÄ±z": 5079,
      "ĠdÃ¼ÅŁÃ¼nÃ¼l": 5080,
      "mit": 5081,
      "Ä±za": 5082,
      "ĠĊĊĠ": 5083,
      "lÄ±lar": 5084,
      "Ġmesaf": 5085,
      "ĠBlack": 5086,
      "Ġ()": 5087,
      "ĠaÃ§tÄ±": 5088,
      "ĠgiriÅŁim": 5089,
      "ĠkÄ±sÄ±m": 5090,
      "ĠsÃ¼rÃ¼m": 5091,
      "ÃĸdÃ¼l": 5092,
      "Ġikti": 5093,
      "birliÄŁi": 5094,
      "ĠtamamladÄ±": 5095,
      "ĠKatolik": 5096,
      "Ġmezar": 5097,
      "Ġ1959": 5098,
      "ĠsanatÃ§Ä±larÄ±": 5099,
      "ĠTarihi": 5100,
      "ĠBÃ¶ylece": 5101,
      "Ã¼leyman": 5102,
      "ĠGi": 5103,
      "Ġunvan": 5104,
      "Ġ)": 5105,
      "Ã¼nist": 5106,
      "ĠbaÅŁrol": 5107,
      "oslav": 5108,
      "Ġref": 5109,
      "ĠKonseyi": 5110,
      "Ġâ": 5111,
      "ĠKaf": 5112,
      "Ìĩ": 5113,
      "Ġrapor": 5114,
      "ĠAtatÃ¼rk": 5115,
      "ĠÄ±s": 5116,
      "ĠÃ§izgi": 5117,
      "Ġgrubun": 5118,
      "Ġgalaksidir": 5119,
      "Ġrast": 5120,
      "ates": 5121,
      "Ġbitk": 5122,
      "Ġham": 5123,
      "Ġkurucu": 5124,
      "Ġwith": 5125,
      "ĠhayatÄ±": 5126,
      "lop": 5127,
      "Ġbiraz": 5128,
      "ubu": 5129,
      "ĠsayÄ±lÄ±": 5130,
      "ĠDiy": 5131,
      "Ġettir": 5132,
      "insel": 5133,
      "iÄĩ": 5134,
      "imli": 5135,
      "bistan": 5136,
      "Dem": 5137,
      "Tr": 5138,
      "ĠÅŁar": 5139,
      "Ġkural": 5140,
      "way": 5141,
      "ĠÅŁehrinde": 5142,
      "Her": 5143,
      "mail": 5144,
      "ÄŁer": 5145,
      "ĠSat": 5146,
      "dÃ¼ÄŁÃ¼": 5147,
      "xt": 5148,
      "ander": 5149,
      "ĠdÃ¼ÅŁman": 5150,
      "ĠÄ°sk": 5151,
      "stantin": 5152,
      "ilyalÄ±": 5153,
      "vey": 5154,
      "Ġekran": 5155,
      "ĠProj": 5156,
      "ĠverilmiÅŁtir": 5157,
      "ucusu": 5158,
      "ĠThomas": 5159,
      "ikal": 5160,
      "ĠyÄ±llar": 5161,
      "Ġrahat": 5162,
      "Ġ1962": 5163,
      "liler": 5164,
      "ĠTw": 5165,
      "ĠÃ¶dÃ¼lÃ¼": 5166,
      "Ġmakin": 5167,
      "ater": 5168,
      "ĠolmadÄ±ÄŁÄ±nÄ±": 5169,
      "Ġsembol": 5170,
      "Ġmekt": 5171,
      "ĠMax": 5172,
      "ĠartÄ±r": 5173,
      "Ġkans": 5174,
      "dÃ¼str": 5175,
      "Ġbilgiler": 5176,
      "07": 5177,
      "ĠprofesÃ¶r": 5178,
      "SK": 5179,
      "ĠatandÄ±": 5180,
      "DiÄŁer": 5181,
      "ĠAll": 5182,
      "tral": 5183,
      "ĠmÃ¼cadel": 5184,
      "ĠÃ¼c": 5185,
      "ĠDir": 5186,
      "Ġhastan": 5187,
      "ĠCr": 5188,
      "Ġprof": 5189,
      "Ġic": 5190,
      "ĠMen": 5191,
      "memiÅŁ": 5192,
      "ila": 5193,
      "ĠalÄ±nan": 5194,
      "Ġbirinc": 5195,
      "ayÄ±f": 5196,
      "Ġcinstir": 5197,
      "ĠLev": 5198,
      "ĠArab": 5199,
      "ĠyetiÅŁtir": 5200,
      "ĠTat": 5201,
      "Ã¼phan": 5202,
      "62": 5203,
      "wood": 5204,
      "Ġ1940": 5205,
      "ĠiÃ§indeki": 5206,
      "ĠdoÄŁum": 5207,
      "iantep": 5208,
      "Ġdarb": 5209,
      "ĠalmÄ±ÅŁ": 5210,
      "ĠbulunmuÅŁtur": 5211,
      "Ġkilomet": 5212,
      "unt": 5213,
      "Ġ63": 5214,
      "ĠyapÄ±lar": 5215,
      "ĠKitap": 5216,
      "ikalÄ±": 5217,
      "ĠoluÅŁturur": 5218,
      "ĠkÄ±rmÄ±zÄ±": 5219,
      "Ah": 5220,
      "Ġsav": 5221,
      "Ġsabit": 5222,
      "Ġgizli": 5223,
      "Ġfilmin": 5224,
      "esh": 5225,
      "Yap": 5226,
      "leÅŁmiÅŁ": 5227,
      "ĠÃ§oÄŁunlukla": 5228,
      "ĠgeÃ§iÅŁ": 5229,
      "medi": 5230,
      "Ġht": 5231,
      "ĠHaÃ§": 5232,
      "ĠgÃ¶rÃ¼lÃ¼r": 5233,
      "Ġifad": 5234,
      "ĠMuharebesi": 5235,
      "Ġheykel": 5236,
      "amasÄ±": 5237,
      "ĠmÃ¼s": 5238,
      "imini": 5239,
      "kes": 5240,
      "ĠÃĩev": 5241,
      "Ġtoplar": 5242,
      "ĠdÃ¶nÃ¼ÅŁtÃ¼r": 5243,
      "ota": 5244,
      "ĠHor": 5245,
      "ĠAndre": 5246,
      "ĠaÄŁaÃ§": 5247,
      "ĠaskerÃ®": 5248,
      "fe": 5249,
      "ĠEdebiyat": 5250,
      "ĠGeneral": 5251,
      "ĠÅŁun": 5252,
      "Ġhttp": 5253,
      "cil": 5254,
      "ĠTab": 5255,
      "Ġkah": 5256,
      "udur": 5257,
      "ĠbarÄ±ÅŁ": 5258,
      "ĠÃ¼cret": 5259,
      "ĠaracÄ±lÄ±ÄŁÄ±yla": 5260,
      "Ġatlet": 5261,
      "emiÅŁtir": 5262,
      "1987": 5263,
      "Ġ57": 5264,
      "ademi": 5265,
      "ĠÄ°t": 5266,
      "ome": 5267,
      "ĠyazÄ±lan": 5268,
      "ĠtoplamÄ±": 5269,
      "eyh": 5270,
      "imarka": 5271,
      "Lig": 5272,
      "Ġistatistik": 5273,
      "ĠtaÅŁÄ±maktadÄ±r": 5274,
      "omi": 5275,
      "ĠAna": 5276,
      "ĠBurada": 5277,
      "Ġlideri": 5278,
      "Ġpozisyonunda": 5279,
      "Ġtelesk": 5280,
      "ĠKend": 5281,
      "Ġgiren": 5282,
      "ĠÅŁarkÄ±cÄ±lar": 5283,
      "ĠMillÃ®": 5284,
      "ĠgÃ¶tÃ¼r": 5285,
      "KulÃ¼p": 5286,
      "ĠinÃ§": 5287,
      "Ã¼kleer": 5288,
      "Ġediyor": 5289,
      "ĠolduÄŁuna": 5290,
      "batÄ±": 5291,
      "ĠCel": 5292,
      "Ġmevcuttur": 5293,
      "mamÄ±ÅŁ": 5294,
      "yolu": 5295,
      "1986": 5296,
      "Ġkod": 5297,
      "ĠIl": 5298,
      "Oy": 5299,
      "Ġyemek": 5300,
      "ĠBos": 5301,
      "ĠBirinci": 5302,
      "www": 5303,
      "ĠyapmaktadÄ±r": 5304,
      "lÄ±klarÄ±": 5305,
      "ĠdiÅŁ": 5306,
      "ĠbÃ¶lÃ¼n": 5307,
      "ĠBrezilya": 5308,
      "ĠHÃ¼seyin": 5309,
      "09": 5310,
      "ĠbaÅŁarÄ±sÄ±z": 5311,
      "ja": 5312,
      "ĠAnton": 5313,
      "ĠÃ¼retilen": 5314,
      "Mad": 5315,
      "ĠgeÃ§er": 5316,
      "ĠÃ¶rÃ¼mcek": 5317,
      "Yeni": 5318,
      "Ġila": 5319,
      "ĠDis": 5320,
      "omp": 5321,
      "Kuzey": 5322,
      "dat": 5323,
      "ĠgÃ¼venlik": 5324,
      "ĠbaÅŁlangÄ±Ã§": 5325,
      "Ġdenir": 5326,
      "ĠÃ§apÄ±nda": 5327,
      "ĠEy": 5328,
      "Ġarka": 5329,
      "ĠgÃ¼zel": 5330,
      "Ġ1920": 5331,
      "adet": 5332,
      "Kat": 5333,
      "geÃ§": 5334,
      "Ġistasyon": 5335,
      "ĠÅŁirketler": 5336,
      "gÃ¶r": 5337,
      "ĠÅŁirketleri": 5338,
      "miyor": 5339,
      "adalÄ±": 5340,
      "ĠMek": 5341,
      "ĠÅŀehrin": 5342,
      "ĠkalÄ±n": 5343,
      "ĠFri": 5344,
      "gre": 5345,
      "Ġkara": 5346,
      "ĠtakÄ±mÄ±na": 5347,
      "over": 5348,
      "ĠkullanÄ±ldÄ±": 5349,
      "ecektir": 5350,
      "Ġailesi": 5351,
      "mesinden": 5352,
      "Ġyerde": 5353,
      "Ġuzman": 5354,
      "TÃ¼rkÃ§e": 5355,
      "ĠgÃ¼nlÃ¼k": 5356,
      "ĠMilletler": 5357,
      "abilen": 5358,
      "ĠbaÅŁlarÄ±nda": 5359,
      "iÅŁehir": 5360,
      "elidir": 5361,
      "YaÅŁamÄ±": 5362,
      "Ġtopluluk": 5363,
      "yr": 5364,
      "ning": 5365,
      "ĠDol": 5366,
      "Ġdefn": 5367,
      "ĠÃ¶zellikleri": 5368,
      "SP": 5369,
      "ĠChan": 5370,
      "ecik": 5371,
      "dek": 5372,
      "ĠSistem": 5373,
      "ĠBursa": 5374,
      "Ñĥ": 5375,
      "ukat": 5376,
      "ĠFre": 5377,
      "ĠBritanya": 5378,
      "ĠdÃ¼zenlem": 5379,
      "ĠAdaylÄ±k": 5380,
      "ĠBa": 5381,
      "ĠMaÃ§": 5382,
      "Ġfinalde": 5383,
      "var": 5384,
      "ĠUr": 5385,
      "Ġaltyap": 5386,
      "Ġgelmektedir": 5387,
      "ĠoluÅŁumlar": 5388,
      "ĠinsanÄ±": 5389,
      "ĠOper": 5390,
      "ĠGÃ¶": 5391,
      "araj": 5392,
      "ĠNaz": 5393,
      "ĠMartin": 5394,
      "alimanÄ±": 5395,
      "Ġop": 5396,
      "igh": 5397,
      "Ġcid": 5398,
      "Ġharf": 5399,
      "Ġmekan": 5400,
      "ĠÅŁÃ¶yle": 5401,
      "04": 5402,
      "Ġseri": 5403,
      "fÄ±": 5404,
      "ĠTah": 5405,
      "1984": 5406,
      "ĠLiga": 5407,
      "maÅŁÄ±k": 5408,
      "cÄ±lÄ±": 5409,
      "Ġanim": 5410,
      "ĠdÃ¼ÅŁÃ¼nc": 5411,
      ")'": 5412,
      "ĠRen": 5413,
      "ĠUyg": 5414,
      "osta": 5415,
      "ĠUzun": 5416,
      "Ø§Ù": 5417,
      "Ġaraya": 5418,
      "ĠZaman": 5419,
      "ĠKadÄ±nlar": 5420,
      "ekteydi": 5421,
      "Ġvoleybol": 5422,
      "ĠvermiÅŁtir": 5423,
      "Ġtehlik": 5424,
      "Ã§ekten": 5425,
      "ĠadamÄ±": 5426,
      "ĠVic": 5427,
      "Ġbasit": 5428,
      "ave": 5429,
      "ĠBÃ¶lg": 5430,
      "Ġmuhareb": 5431,
      "ĠdavranÄ±ÅŁ": 5432,
      "AT": 5433,
      "tel": 5434,
      "Ä±rk": 5435,
      "ederal": 5436,
      "\".": 5437,
      "Ph": 5438,
      "rad": 5439,
      "ĠKralÄ±": 5440,
      "Ä±sal": 5441,
      "ĠbaÅŁta": 5442,
      "lovak": 5443,
      "erg": 5444,
      "ĠÃ§Ã¶zÃ¼m": 5445,
      "Ġolma": 5446,
      "ush": 5447,
      "Ġ85": 5448,
      "ĠCamii": 5449,
      "aket": 5450,
      "Ġ56": 5451,
      "ashington": 5452,
      "Ġ1958": 5453,
      "Ġ72": 5454,
      "doÄŁan": 5455,
      "iki": 5456,
      "ĠsÄ±nÄ±flandÄ±r": 5457,
      "Ġ68": 5458,
      "Ġbilg": 5459,
      "KadÄ±n": 5460,
      "espor": 5461,
      "72": 5462,
      "zi": 5463,
      "Hal": 5464,
      "ĠOÄŁ": 5465,
      "71": 5466,
      "Ġklasik": 5467,
      "ĠtakÄ±mÄ±nda": 5468,
      "Ġkapas": 5469,
      "Ġortalama": 5470,
      "eyle": 5471,
      "ĠÃ¶y": 5472,
      "Ġ58": 5473,
      "ĠHenry": 5474,
      "%;": 5475,
      "Ġkup": 5476,
      "Ġmakal": 5477,
      "rix": 5478,
      "Nor": 5479,
      "ĠÄ°sviÃ§re": 5480,
      "Ġkanun": 5481,
      "apÄ±n": 5482,
      "Ġantik": 5483,
      "ĠAg": 5484,
      "Ġplatform": 5485,
      "ple": 5486,
      "BirleÅŁik": 5487,
      "ĠÃ§ekir": 5488,
      "kg": 5489,
      "ĠNob": 5490,
      "ĠbÃ¶lgesine": 5491,
      "lanmaktadÄ±r": 5492,
      "ĠCap": 5493,
      "talyan": 5494,
      "Ġsert": 5495,
      "KÃ¶yÃ¼n": 5496,
      "Ġticari": 5497,
      "ĠkÄ±ÅŁ": 5498,
      "astÄ±r": 5499,
      "ĠgÃ¶stermektedir": 5500,
      "olek": 5501,
      "wa": 5502,
      "ĠyaÅŁadÄ±ÄŁÄ±": 5503,
      "ĠsaÄŁlÄ±k": 5504,
      "ĠyanlÄ±ÅŁ": 5505,
      "Ġters": 5506,
      "ism": 5507,
      "ĠinsanlarÄ±n": 5508,
      "ĠMoÄŁol": 5509,
      "Ġkum": 5510,
      "ĠÃľy": 5511,
      "Ġdurdur": 5512,
      "ĠUnited": 5513,
      "ĠGro": 5514,
      "ĠRed": 5515,
      "ĠRef": 5516,
      "ĠhÃ¼kÃ»meti": 5517,
      "istin": 5518,
      "Ġetme": 5519,
      "ĠaraÅŁtÄ±rmalar": 5520,
      "ĠØ": 5521,
      "Ġilgi": 5522,
      "mur": 5523,
      "ĠKuÅŁ": 5524,
      "ĠiliÅŁkin": 5525,
      "sem": 5526,
      "Ġbl": 5527,
      "dÄ±klarÄ±": 5528,
      "rimi": 5529,
      "ĠHot": 5530,
      "Ä±b": 5531,
      "ĠErzurum": 5532,
      "ĠDeÄŁ": 5533,
      "93": 5534,
      "For": 5535,
      "Ġdolar": 5536,
      "Erk": 5537,
      "ĠsektÃ¶r": 5538,
      "Ġ1944": 5539,
      "Ġteleskop": 5540,
      "omen": 5541,
      "ĠTÃ¼rkmen": 5542,
      "ĠsÃ¼t": 5543,
      "ĠSelÃ§": 5544,
      "mos": 5545,
      "Ġyarar": 5546,
      "Ġmahk": 5547,
      "73": 5548,
      "Ġyurt": 5549,
      "Ġgerekir": 5550,
      "ĠZel": 5551,
      "NE": 5552,
      "ĠÃ¼ye": 5553,
      "Ġ1956": 5554,
      "idro": 5555,
      "ĠÃ¶ldÃ¼rÃ¼l": 5556,
      "ĠgÃ¶revini": 5557,
      "ĠhÃ¼kÃ¼mdar": 5558,
      "Ä°talyan": 5559,
      "edeni": 5560,
      "ĠsanatÃ§Ä±sÄ±": 5561,
      "Ġdakik": 5562,
      "ĠaÃ§Ä±l": 5563,
      "ĠkÃ¼ltÃ¼rel": 5564,
      "ĠPers": 5565,
      "ĠOf": 5566,
      "ĠcoÄŁraf": 5567,
      "lenme": 5568,
      "ĠÃ§arpÄ±m": 5569,
      "ĠSK": 5570,
      "rey": 5571,
      "board": 5572,
      "ĠKn": 5573,
      "ĠzayÄ±f": 5574,
      "out": 5575,
      "ĠÃ§arpÄ±mÄ±": 5576,
      "CD": 5577,
      "ĠSÃ¼leyman": 5578,
      "Ġedilmesi": 5579,
      ");": 5580,
      "Ġhafif": 5581,
      "ĠbÃ¶": 5582,
      "Ġsur": 5583,
      "91": 5584,
      "ĠmeÅŁ": 5585,
      "Notlar": 5586,
      "ĠBon": 5587,
      "Ġ51": 5588,
      "ÄŁinden": 5589,
      "ĠHint": 5590,
      "Ġ1930": 5591,
      "lÄ±ÄŁÄ±nda": 5592,
      "Ġiline": 5593,
      "ĠmÃ¼l": 5594,
      "Ġmac": 5595,
      "Ä°talya": 5596,
      "ijital": 5597,
      "Ġyapar": 5598,
      "idge": 5599,
      "ses": 5600,
      "vik": 5601,
      "ĠFlor": 5602,
      "ĠIntern": 5603,
      "ÄŁÃ¼nÃ¼": 5604,
      "ĠYen": 5605,
      "ĠKomÃ¼nist": 5606,
      "ero": 5607,
      "ĠSw": 5608,
      "abor": 5609,
      "ĠoynadÄ±ÄŁÄ±": 5610,
      "Ġegemen": 5611,
      "Yer": 5612,
      "ĠSun": 5613,
      "tesi": 5614,
      "Ġ78": 5615,
      "Ġyere": 5616,
      "irler": 5617,
      "ition": 5618,
      "ĠFederasyonu": 5619,
      "Ã¼me": 5620,
      "ĠbazÄ±larÄ±": 5621,
      "ĠEyaleti": 5622,
      "ĠMu": 5623,
      "ĠÄ°b": 5624,
      "liÄŁin": 5625,
      "ĠkralÄ±": 5626,
      "rem": 5627,
      "aÄŁÄ±na": 5628,
      "onun": 5629,
      "leyici": 5630,
      "ake": 5631,
      "ÅŀarkÄ±": 5632,
      "chi": 5633,
      "ronz": 5634,
      "oli": 5635,
      "led": 5636,
      "Ġ52": 5637,
      "Ġteklif": 5638,
      "ĠBit": 5639,
      "ĠPlat": 5640,
      "kender": 5641,
      "Ġib": 5642,
      "ĠkaynaÄŁÄ±": 5643,
      "06": 5644,
      "43": 5645,
      "Ġtuz": 5646,
      "Ġhatta": 5647,
      "ls": 5648,
      "ĠsaÄŁladÄ±": 5649,
      "03": 5650,
      "mesinin": 5651,
      "cia": 5652,
      "ĠHÃ¼kÃ»met": 5653,
      "1960": 5654,
      "atÃ¼r": 5655,
      "ĠTic": 5656,
      "MÃ¼z": 5657,
      "ĠtanÄ±": 5658,
      "41": 5659,
      "Ġfin": 5660,
      "ĠkararÄ±": 5661,
      "ĠsÃ¼rec": 5662,
      "kÃ¢n": 5663,
      "fat": 5664,
      "lish": 5665,
      "Ġku": 5666,
      "Ġkabil": 5667,
      "Ġhapis": 5668,
      "Evr": 5669,
      "Ġ88": 5670,
      "Su": 5671,
      "Et": 5672,
      "Ã£": 5673,
      "Ġbest": 5674,
      "Ġtor": 5675,
      "ĠoluÅŁturan": 5676,
      "ĠkarÄ±ÅŁ": 5677,
      "Ġfiziksel": 5678,
      "Ġcinsel": 5679,
      "ĠaÅŁÄ±rÄ±": 5680,
      "oo": 5681,
      "ĠtaÅŁÄ±": 5682,
      "liy": 5683,
      "53": 5684,
      "Ãĸzel": 5685,
      "ĠĠĠĠĠĠĠĠĠĠĠĠĠĠĠĠ": 5686,
      "ĠDemokrat": 5687,
      "Ġmant": 5688,
      "ĠHÄ±rvat": 5689,
      "ĠiÃ§ine": 5690,
      "Ġmuhtemelen": 5691,
      "Ġkullanan": 5692,
      "cÃ¼k": 5693,
      "Ġ1957": 5694,
      "kim": 5695,
      "ifaessa": 5696,
      "Evrifaessa": 5697,
      "liliÄŁ": 5698,
      "Ġsaf": 5699,
      "ĠDoktor": 5700,
      "Ä±lÄ±mÄ±": 5701,
      "Ġide": 5702,
      "ĠRock": 5703,
      "ĠUSS": 5704,
      "text": 5705,
      "Ġton": 5706,
      "Ġbelli": 5707,
      "kal": 5708,
      "ĠyaptÄ±r": 5709,
      "ugoslav": 5710,
      "ozof": 5711,
      "ĠÃ¶lÃ¼mÃ¼nden": 5712,
      "ĠList": 5713,
      "Ġ1946": 5714,
      "Ġlistesinde": 5715,
      "ĠSoci": 5716,
      "ĠSÄ±rp": 5717,
      "ĠgÃ¶sterdi": 5718,
      "vis": 5719,
      "ĠkullanÄ±mÄ±": 5720,
      "Ġproblem": 5721,
      "ĠprogramÄ±": 5722,
      "Japon": 5723,
      "Ġreddet": 5724,
      "ĠPe": 5725,
      "alarÄ±ndan": 5726,
      "Ġ66": 5727,
      "amik": 5728,
      "ĠÃĩok": 5729,
      "ĠBÃ¶lÃ¼mÃ¼": 5730,
      "ĠSivas": 5731,
      "ĠWest": 5732,
      "ĠĊĠĊĠĊ": 5733,
      "Final": 5734,
      "ĠBoÄŁ": 5735,
      "Ã¼lÃ¼k": 5736,
      "Ġpet": 5737,
      "ĠyÃ¼kseldi": 5738,
      "ĠÂ": 5739,
      "osunu": 5740,
      "Ġalanda": 5741,
      "Ġgerekli": 5742,
      "ĠamacÄ±": 5743,
      "ĠSeri": 5744,
      "ĠRoman": 5745,
      "ĠÃľlk": 5746,
      "ĠMacaristan": 5747,
      "ĠrolÃ¼": 5748,
      "42": 5749,
      "ĠKer": 5750,
      "Ã¶lÃ§Ã¼mÃ¼": 5751,
      "ĠyapÄ±sÄ±": 5752,
      "Ġkaybetti": 5753,
      "1985": 5754,
      "Ġ1955": 5755,
      "ĠMÃ¼hendis": 5756,
      "isti": 5757,
      "Ġfrom": 5758,
      "Ġetnik": 5759,
      "ĠJan": 5760,
      "ĠArjantin": 5761,
      "ĠihtiyaÃ§": 5762,
      "landiya": 5763,
      "ĠEsk": 5764,
      "kur": 5765,
      "ĠNat": 5766,
      "Ãĩin": 5767,
      "ĠSem": 5768,
      "Ġyetk": 5769,
      "ĠKing": 5770,
      "ĠBirlik": 5771,
      "1982": 5772,
      "rip": 5773,
      "AltÄ±n": 5774,
      "Ġap": 5775,
      "Ġ1943": 5776,
      "Ġorada": 5777,
      "Ġgider": 5778,
      "ĠEmir": 5779,
      "ĠLo": 5780,
      "ĠbÃ¶lÃ¼mÄ±": 5781,
      "ÄŁren": 5782,
      "Ġ1941": 5783,
      "lerce": 5784,
      "itÃ¶r": 5785,
      "ĠbaÅŁv": 5786,
      "Ġtalep": 5787,
      "TP": 5788,
      "dak": 5789,
      "Ä±sÄ±t": 5790,
      "ulur": 5791,
      "ĠÃ§ab": 5792,
      "ĠÃ¼lkede": 5793,
      "Brez": 5794,
      "cilik": 5795,
      "etti": 5796,
      "lendiÄŁi": 5797,
      "Ġsavunma": 5798,
      "fab": 5799,
      "Ã±": 5800,
      "Äį": 5801,
      "laÅŁma": 5802,
      "ĠdÃ¶nemin": 5803,
      "ĠtÄ±p": 5804,
      "Ġsebebiyle": 5805,
      "tren": 5806,
      "Rusya": 5807,
      "adeniz": 5808,
      "lup": 5809,
      "Ä±lÄ±Ã§": 5810,
      "Ã©r": 5811,
      "ĠFrancis": 5812,
      "ĠÄ°skoÃ§": 5813,
      "ĠÅ": 5814,
      "enis": 5815,
      "Ã¢t": 5816,
      "Ġyapmaya": 5817,
      "ĠBasketbol": 5818,
      "Ġyed": 5819,
      "ĠMaked": 5820,
      "Ġenerj": 5821,
      "ĠÄ°rlanda": 5822,
      "56": 5823,
      "enÃ¼z": 5824,
      "ĠkadÄ±nlar": 5825,
      "vanya": 5826,
      "Ġazalt": 5827,
      "ĠbÃ¶lrsak": 5828,
      "Ġgelebilir": 5829,
      "Ġevlendi": 5830,
      "âĢİ": 5831,
      "ĠAbdÃ¼l": 5832,
      "ĠBin": 5833,
      "ven": 5834,
      "ĠiÃ§eri": 5835,
      "Ã¡n": 5836,
      "Ġsenary": 5837,
      "yetik": 5838,
      "Ã¼tte": 5839,
      "Ġtane": 5840,
      "ĠaslÄ±nda": 5841,
      "ĠEst": 5842,
      "Ġpas": 5843,
      "Ġ1954": 5844,
      "cer": 5845,
      "itch": 5846,
      "ico": 5847,
      "ĠDÃ¶nem": 5848,
      "ĠÄ°dar": 5849,
      "Ġbozuk": 5850,
      "Ġrekor": 5851,
      "ĠMÃ¼n": 5852,
      "ĠiletiÅŁim": 5853,
      "isiyle": 5854,
      "ĠAma": 5855,
      "ĠDÃ¼z": 5856,
      "Ġta": 5857,
      "Ġgerektir": 5858,
      "ĠiliÅŁkileri": 5859,
      "ĠFu": 5860,
      "Ġmo": 5861,
      "ĠyayÄ±mlandÄ±": 5862,
      "ĠEÅŁ": 5863,
      "Ġanlay": 5864,
      "ĠtakÄ±mÄ±nÄ±n": 5865,
      "BÃ¼yÃ¼k": 5866,
      "dr": 5867,
      "imin": 5868,
      "ĠDay": 5869,
      "Har": 5870,
      "tom": 5871,
      "vir": 5872,
      "ĠÅŁart": 5873,
      "1983": 5874,
      "arbakÄ±r": 5875,
      "Ġolas": 5876,
      "ĠJac": 5877,
      "ĠakÄ±l": 5878,
      "ĠKomisyonu": 5879,
      "ĠBulgaristan": 5880,
      "Ġarab": 5881,
      "ĠAraÅŁtÄ±rma": 5882,
      "Ġdramatik": 5883,
      "ĊĊĠ": 5884,
      "Portekiz": 5885,
      "Tel": 5886,
      "ĠStev": 5887,
      "emli": 5888,
      "Ġbelirtti": 5889,
      "Ä°spanya": 5890,
      "ua": 5891,
      "Mal": 5892,
      "Ġ1942": 5893,
      "ĠulaÅŁtÄ±": 5894,
      "ĠkeÅŁfedilmiÅŁtir": 5895,
      "iÃ§e": 5896,
      "ĠtakÄ±mÄ±n": 5897,
      "ĠgÃ¼cÃ¼": 5898,
      "ĠKent": 5899,
      "ĠVakfÄ±": 5900,
      "Cumhur": 5901,
      "lardaki": 5902,
      "Ġ53": 5903,
      "SeÃ§": 5904,
      "Ġend": 5905,
      "ello": 5906,
      "ĠÃ§aplÄ±": 5907,
      "ĠMeclis": 5908,
      "olk": 5909,
      "ĠGÃ¼zel": 5910,
      "ĠNiÅŁ": 5911,
      "ĠyapÄ±mcÄ±sÄ±": 5912,
      "ĠBlu": 5913,
      "ĠAlt": 5914,
      "ĠÃ§aÄŁr": 5915,
      "Ġbuldu": 5916,
      "Car": 5917,
      "ĠsÄ±v": 5918,
      "ĠTa": 5919,
      "erÃ§ev": 5920,
      "ĠbiÃ§imde": 5921,
      "ullarÄ±": 5922,
      "ĠoluÅŁmaktadÄ±r": 5923,
      "ĠSavun": 5924,
      "ĠrÃ¶": 5925,
      "ĠkullandÄ±": 5926,
      "Ġfilminde": 5927,
      "ĠÃ¶nceleri": 5928,
      "ternatif": 5929,
      "Ġtablo": 5930,
      ")\"": 5931,
      "ĠLee": 5932,
      "Ġeseri": 5933,
      "Ã¶rf": 5934,
      "ĠsonlarÄ±nda": 5935,
      "ĠolduÄŁundan": 5936,
      "ĠsahipliÄŁi": 5937,
      "Ġkendine": 5938,
      "ĠgeniÅŁlet": 5939,
      "ĠmÃ¼dÃ¼r": 5940,
      "ĠParlament": 5941,
      "02": 5942,
      "ĠkiÅŁisel": 5943,
      "Ġtoplarsak": 5944,
      "raph": 5945,
      "emiÅŁ": 5946,
      "Ġfabrik": 5947,
      "ges": 5948,
      "ĠrolÃ¼nde": 5949,
      "ĠDoÄŁru": 5950,
      "ĠÃ§atÄ±ÅŁmalar": 5951,
      "itap": 5952,
      "ĠAkademi": 5953,
      "ĠadlandÄ±rÄ±lan": 5954,
      "ĠMeksika": 5955,
      "ĠDaÄŁÄ±": 5956,
      "ĠPic": 5957,
      "ĠEkonom": 5958,
      "Sovyet": 5959,
      "Top": 5960,
      "family": 5961,
      "ĠBunlar": 5962,
      "Ġtat": 5963,
      "Ġedin": 5964,
      "Ġbilinmektedir": 5965,
      "onyalÄ±": 5966,
      "ĠGe": 5967,
      "ĠnÃ¼fusunun": 5968,
      "ĠAdalarÄ±": 5969,
      "ĠEfendi": 5970,
      "ĠVir": 5971,
      "ĠIt": 5972,
      "ĠKonstantin": 5973,
      "ĠsonuÃ§larÄ±": 5974,
      "Ġgetirdi": 5975,
      "ĠEnter": 5976,
      "lÄ±ÄŁÄ±nÄ±n": 5977,
      "ĠJoseph": 5978,
      "51": 5979,
      "AR": 5980,
      "ĠNok": 5981,
      "ĠeriÅŁ": 5982,
      "Ġverilir": 5983,
      "Ġ76": 5984,
      "Ġkart": 5985,
      "ĠÃ¶lmÃ¼ÅŁtÃ¼r": 5986,
      "ĠÃ¶ldÃ¼rÃ¼ldÃ¼": 5987,
      "ĠkulÃ¼bÃ¼nde": 5988,
      "ĠkatÄ±lan": 5989,
      "ĠTeknik": 5990,
      "ela": 5991,
      "Ġtedavi": 5992,
      "Ġzarar": 5993,
      "ĠMey": 5994,
      "Ġgetirildi": 5995,
      "ĠBilimler": 5996,
      "opa": 5997,
      "Filmografi": 5998,
      "|%": 5999,
      "Ġetmesi": 6000,
      "Ġ(?-?": 6001,
      "Ã¼ttefik": 6002,
      "Ġ98": 6003,
      "ĠhaklarÄ±": 6004,
      "ĠtÃ¶ren": 6005,
      "ĠMiss": 6006,
      "Ġdokuz": 6007,
      "ĠÅŁah": 6008,
      "ĠKah": 6009,
      "Ġherpet": 6010,
      "tÄ±klarÄ±": 6011,
      "ĠKoreli": 6012,
      "amay": 6013,
      "ĠmÄ±": 6014,
      "ĠKarab": 6015,
      "ĠÅŀampiyonlar": 6016,
      "rown": 6017,
      "unlu": 6018,
      "Ġzir": 6019,
      "ĠÃ§ekilmiÅŁ": 6020,
      "Ġ....": 6021,
      "elendir": 6022,
      "ĠEdward": 6023,
      "ĠOne": 6024,
      "ĠÃ§Ä±karrsak": 6025,
      "ĠCup": 6026,
      "ĠÃ¶nÃ¼nde": 6027,
      "ado": 6028,
      "ĠÃ§Ä±kardÄ±": 6029,
      "Ġkuzeyinde": 6030,
      "ĠLouis": 6031,
      "inger": 6032,
      "ogle": 6033,
      "ĠdÃ¼ÅŁÃ¼r": 6034,
      "ensis": 6035,
      "ext": 6036,
      "Ġmilyar": 6037,
      "Ġtakv": 6038,
      "Ġherpetolog": 6039,
      "Ġprens": 6040,
      "Ġarada": 6041,
      "otball": 6042,
      "Ġgereken": 6043,
      "ĠBelÃ§ika": 6044,
      "Ð²": 6045,
      "Ġdepr": 6046,
      "ĠÄ°smail": 6047,
      "abileceÄŁi": 6048,
      "ĠsÃ¼rdÃ¼": 6049,
      "59": 6050,
      "Am": 6051,
      "ĠAÃ§Ä±k": 6052,
      "ĠÃ§arprsak": 6053,
      "tuluÅŁ": 6054,
      "ĠdÃ¶v": 6055,
      "iti": 6056,
      "ĠilaÃ§": 6057,
      "ĠEli": 6058,
      "Ġnehir": 6059,
      "chester": 6060,
      "ĠgÃ¶rÃ¼len": 6061,
      "ĠBern": 6062,
      "Mah": 6063,
      "Ġpot": 6064,
      "ĠFir": 6065,
      "Ġ77": 6066,
      "otik": 6067,
      "ĠSilah": 6068,
      "MillÃ®": 6069,
      "áĥĺ": 6070,
      "ĠyÃ¶netmeni": 6071,
      "emez": 6072,
      "ĠRay": 6073,
      "mey": 6074,
      "ĠSor": 6075,
      "Ġ59": 6076,
      "Ġilgilen": 6077,
      "edy": 6078,
      "ĠhenÃ¼z": 6079,
      "ĠOff": 6080,
      "Ġesas": 6081,
      "ĠSitesi": 6082,
      "Ġtedav": 6083,
      "Î±": 6084,
      "Ġkoleksiyon": 6085,
      "iste": 6086,
      "ĠVe": 6087,
      "ĠiliÅŁkiler": 6088,
      "Ġdalg": 6089,
      "Ġum": 6090,
      "ilme": 6091,
      "áĥĲ": 6092,
      "Ġnet": 6093,
      "ĠadÄ±m": 6094,
      "1979": 6095,
      "adaÄŁ": 6096,
      "Ġciddi": 6097,
      "ĠMilliyetÃ§i": 6098,
      "Ġ1939": 6099,
      "isyenler": 6100,
      "ĠAdasÄ±": 6101,
      "Deniz": 6102,
      "ĠKel": 6103,
      "Ġ1953": 6104,
      "Ä±da": 6105,
      "ĠyaÅŁadÄ±": 6106,
      "ĠMÃ¼dÃ¼rlÃ¼ÄŁÃ¼": 6107,
      "kol": 6108,
      "lÄ±dÄ±r": 6109,
      "Ġus": 6110,
      "avuz": 6111,
      "liÄŁinden": 6112,
      "Ġoperasyon": 6113,
      "Ġmedya": 6114,
      "Ġplak": 6115,
      "GB": 6116,
      "ĠhakkÄ±": 6117,
      "ĠcivarÄ±nda": 6118,
      "anc": 6119,
      "ĠTBMM": 6120,
      "ĠyÃ¶rÃ¼n": 6121,
      "ink": 6122,
      "ÅŁÄ±k": 6123,
      "Ġno": 6124,
      "ower": 6125,
      "Ġ*": 6126,
      "eff": 6127,
      "ĠHitler": 6128,
      "ĠNet": 6129,
      "ĠkÃ¶yler": 6130,
      "iskop": 6131,
      "Äģ": 6132,
      "ĠMahkem": 6133,
      "ump": 6134,
      "ĠmÃ¼da": 6135,
      "ien": 6136,
      "oyu": 6137,
      "ĠHarek": 6138,
      "Ġnesn": 6139,
      "ĠMezarlÄ±ÄŁÄ±": 6140,
      "ĠMicrosoft": 6141,
      "ĠAnay": 6142,
      "ĠSaf": 6143,
      "ĠrÃ¼t": 6144,
      "Ali": 6145,
      "Ġikisi": 6146,
      "ĠseÃ§imlerinde": 6147,
      "ĠBalÄ±k": 6148,
      "Ġdakika": 6149,
      "ĠendÃ¼str": 6150,
      "ĠTrans": 6151,
      "oma": 6152,
      "ĠIr": 6153,
      "ĠkullanÄ±labilir": 6154,
      "Ġfilozof": 6155,
      "Ġyasa": 6156,
      "edia": 6157,
      "ĠsÃ¶zleÅŁme": 6158,
      "ĠYÄ±lÄ±n": 6159,
      "52": 6160,
      "ben": 6161,
      "aklar": 6162,
      "ĠDal": 6163,
      "Ġmuhal": 6164,
      "ekim": 6165,
      "ĠDÃ¼ÅŁ": 6166,
      "Ġfilmde": 6167,
      "ĠProgram": 6168,
      "emier": 6169,
      "FE": 6170,
      "ĠKab": 6171,
      "ĠÃĸzellikle": 6172,
      "ĠtoplantÄ±": 6173,
      "cÄ±lÄ±ÄŁÄ±": 6174,
      "ĠWashington": 6175,
      "Ġaksine": 6176,
      "ĠNur": 6177,
      "ĠIV": 6178,
      "1981": 6179,
      "ulmuÅŁ": 6180,
      "Ġyaparak": 6181,
      "Ġpark": 6182,
      "Ġortadan": 6183,
      "ĠKarÅŁ": 6184,
      "ĠgeliÅŁtirilen": 6185,
      "ras": 6186,
      "Ġvaz": 6187,
      "Ġenf": 6188,
      "Ġeserleri": 6189,
      "ĠMehmed": 6190,
      "ĠMusic": 6191,
      "kÄ±r": 6192,
      "rian": 6193,
      "ĠÃľn": 6194,
      "ĠgÃ¼ncel": 6195,
      "ersin": 6196,
      "Ġavukat": 6197,
      "Ä±mÄ±z": 6198,
      "avatan": 6199,
      "ku": 6200,
      "Ġikinc": 6201,
      "leyerek": 6202,
      "adÄ±klarÄ±": 6203,
      "Sin": 6204,
      "Ġmetin": 6205,
      "Ä°ngiltere": 6206,
      "ĠÃ§alÄ±ÅŁmaya": 6207,
      "ĠÃ§ekildi": 6208,
      "ĠÃ¼stÃ¼n": 6209,
      "Ġfinans": 6210,
      "ĠBÃ¼yÃ¼kÅŁehir": 6211,
      "ĠÃ¼retimi": 6212,
      "Ġbisiklet": 6213,
      "layÄ±cÄ±": 6214,
      "Ã£o": 6215,
      "Bul": 6216,
      "ĠAlp": 6217,
      "abilmektedir": 6218,
      "ĠgÃ¶m": 6219,
      "Ġdam": 6220,
      "ĠyÄ±lda": 6221,
      "Ab": 6222,
      "ĠAK": 6223,
      "Ġkurucusu": 6224,
      "top": 6225,
      "Ġevren": 6226,
      "Ġkesim": 6227,
      "ĠDom": 6228,
      "ĠâĢĺ": 6229,
      "ĠgerektiÄŁini": 6230,
      "Mer": 6231,
      "Ø±": 6232,
      "ĠkalmÄ±ÅŁtÄ±r": 6233,
      "ĠDÄ±ÅŁiÅŁleri": 6234,
      "ografik": 6235,
      "Ġtesis": 6236,
      "ĠÃ¼retic": 6237,
      "tÄ±ktan": 6238,
      "sÃ¼z": 6239,
      "ĠdanÄ±ÅŁ": 6240,
      "ĠkarmaÅŁÄ±k": 6241,
      "oul": 6242,
      "Ġnak": 6243,
      "ĠShow": 6244,
      "Def": 6245,
      "sat": 6246,
      "Eski": 6247,
      "chen": 6248,
      "ĠKulÃ¼b": 6249,
      "Ġ1948": 6250,
      "hel": 6251,
      "ito": 6252,
      "ĠkomÅŁ": 6253,
      "Japonya": 6254,
      "Daha": 6255,
      "Ġiklim": 6256,
      "ĠkÃ¶pr": 6257,
      "Ġanaliz": 6258,
      "ĠbÃ¼ny": 6259,
      "aklÄ±": 6260,
      "ĠÃ§erÃ§ev": 6261,
      "Ġvb": 6262,
      "Ġbask": 6263,
      "baÅŁkanlÄ±ÄŁÄ±": 6264,
      "yer": 6265,
      "liÄŁinin": 6266,
      "Sp": 6267,
      "portaj": 6268,
      "idir": 6269,
      "lon": 6270,
      "ĠsaÃ§": 6271,
      "ografisi": 6272,
      "Ġund": 6273,
      "Ġnedeni": 6274,
      "yÃ¼zÃ¼nde": 6275,
      "rac": 6276,
      "engi": 6277,
      "ĠkapsamÄ±nda": 6278,
      "Ġ84": 6279,
      "Ġ1952": 6280,
      "uluÄŁ": 6281,
      "ĠPop": 6282,
      "ute": 6283,
      "ĠMay": 6284,
      "Ġserisi": 6285,
      "Ġir": 6286,
      "ĠmÃ¼sabak": 6287,
      "Ġarke": 6288,
      "Ġiyil": 6289,
      "||||": 6290,
      "ĠInter": 6291,
      "ĠbaÅŁardÄ±": 6292,
      "Ġidam": 6293,
      "mÃ¼r": 6294,
      "ĠAdana": 6295,
      "ream": 6296,
      "Ġettiler": 6297,
      "menler": 6298,
      "colspan": 6299,
      "aborat": 6300,
      "ĠRoy": 6301,
      "ebi": 6302,
      "Ä±lÄ±p": 6303,
      "Ãĸl": 6304,
      "ĠCumhurbaÅŁkanÄ±": 6305,
      "ĠgerÃ§ekten": 6306,
      "Ġkuvvetleri": 6307,
      "ĠetkileÅŁ": 6308,
      "Ġbirden": 6309,
      "ĠakÄ±ÅŁ": 6310,
      "ĠdolayÄ±sÄ±yla": 6311,
      "mat": 6312,
      "andÄ±r": 6313,
      "use": 6314,
      "ĠgÃ¼neÅŁ": 6315,
      "Ġgalib": 6316,
      "Ġ61": 6317,
      "1976": 6318,
      "Ġdergis": 6319,
      "ĠbaÅŁlamÄ±ÅŁ": 6320,
      "86": 6321,
      "ĠDenizi": 6322,
      "ĠMS": 6323,
      "BaÅŁarÄ±": 6324,
      "ĠÄ°skender": 6325,
      "Ġkaps": 6326,
      "ĠAmerican": 6327,
      "dy": 6328,
      "allen": 6329,
      "ĠdÃ¼ÅŁtÃ¼": 6330,
      "ĠSiyas": 6331,
      "ĠkÃ¶yÃ¼": 6332,
      "leyic": 6333,
      "iyana": 6334,
      "Ġ500": 6335,
      "ĠÃ§alÄ±ÅŁÄ±r": 6336,
      "field": 6337,
      "aylÄ±": 6338,
      "Ġ96": 6339,
      "luÄŁunu": 6340,
      "ĠAhmed": 6341,
      "Ġgiden": 6342,
      "ĠTam": 6343,
      "ĠPl": 6344,
      "ĠilÃ§esi": 6345,
      "Ġara": 6346,
      "ĠOkyan": 6347,
      "ĠbÃ¶yle": 6348,
      "igÃ¼r": 6349,
      "ĠStudi": 6350,
      "Tur": 6351,
      "ĠbunlarÄ±n": 6352,
      "Ã¼lebilir": 6353,
      "ĠRap": 6354,
      "Ġprote": 6355,
      "ĠtaÅŁÄ±ndÄ±": 6356,
      "Ġparishler": 6357,
      "familyasÄ±na": 6358,
      "ĠCla": 6359,
      "ĠSmith": 6360,
      "Ġ62": 6361,
      "Ġvir": 6362,
      "ĠbarÄ±ndÄ±r": 6363,
      "Ä±rh": 6364,
      "Ġ82": 6365,
      "ĠTÄ±p": 6366,
      "ĠalÄ±ÅŁ": 6367,
      "Ġrest": 6368,
      "ĠHanedanÄ±": 6369,
      "ĠÃ¶nde": 6370,
      "Ġgazetec": 6371,
      "Ġyans": 6372,
      "paÅŁa": 6373,
      "Ġ67": 6374,
      "Ġzamanlar": 6375,
      "Ġert": 6376,
      "amin": 6377,
      "ĠsÄ±ralam": 6378,
      "ĠEng": 6379,
      "ĠyayÄ±nlar": 6380,
      "Ġoynan": 6381,
      "Ġkimyasal": 6382,
      "YÄ±l": 6383,
      "ĠÃ¶zelliÄŁi": 6384,
      "Ġnot": 6385,
      "Ã¼lasyon": 6386,
      "esto": 6387,
      "ĠhÄ±zla": 6388,
      "ilmesini": 6389,
      "etler": 6390,
      "1972": 6391,
      "ĠMurat": 6392,
      "ĠChamp": 6393,
      "Ġanlamlara": 6394,
      "Ġstrate": 6395,
      "ĠÃ§alÄ±ÅŁtÄ±r": 6396,
      "lemesi": 6397,
      "ĠbÃ¶lgeler": 6398,
      "AB": 6399,
      "ĠtÃ¼rleri": 6400,
      "sky": 6401,
      "ĠCer": 6402,
      "ĠNap": 6403,
      "Ġnokta": 6404,
      "unk": 6405,
      "ĠÃ¶de": 6406,
      "ĠNazi": 6407,
      "ĠgÃ¼neyinde": 6408,
      "ezer": 6409,
      "ĠUl": 6410,
      "Ġeksik": 6411,
      "Grup": 6412,
      "Ġces": 6413,
      "Ġcep": 6414,
      "ĠÃĩan": 6415,
      "arya": 6416,
      "ĠMut": 6417,
      "ĠBÃ¶lge": 6418,
      "Ġ93": 6419,
      "1978": 6420,
      "ĠÅŁampiyonu": 6421,
      "Kariyeri": 6422,
      "ĠRod": 6423,
      "Î¿": 6424,
      "ĠmaÃ§Ä±na": 6425,
      "ĠAntlaÅŁmasÄ±": 6426,
      "esir": 6427,
      "Ġ74": 6428,
      "ĠKonya": 6429,
      "1968": 6430,
      "ĠKomitesi": 6431,
      "Ġesn": 6432,
      "ĠSavunma": 6433,
      "ej": 6434,
      "ĠÄ°sa": 6435,
      "ĠKaradeniz": 6436,
      "ĠdÃ¼ÄŁ": 6437,
      "Ġgiderek": 6438,
      "Ġseyahat": 6439,
      "Meh": 6440,
      "osh": 6441,
      "ĠVil": 6442,
      "Ġduyur": 6443,
      "ĠLit": 6444,
      "Ġvarsay": 6445,
      "bilim": 6446,
      "ĠCat": 6447,
      "ĠNa": 6448,
      "heim": 6449,
      "Ġyandan": 6450,
      "GÃ¼r": 6451,
      "Ġparlak": 6452,
      "Ġreak": 6453,
      "ĠEp": 6454,
      "ĠyÄ±lÄ±n": 6455,
      "Ġkalp": 6456,
      "odoks": 6457,
      "ĠyÃ¼zÃ¼nden": 6458,
      "Ġgiydi": 6459,
      "ĠgÃ¼mÃ¼ÅŁ": 6460,
      "Ġkarakterler": 6461,
      "ĠKarak": 6462,
      "Ġ978": 6463,
      "ĠDep": 6464,
      "ĠÅŁÃ¼p": 6465,
      "Ġedilebilir": 6466,
      "ĠamaÃ§lÄ±": 6467,
      "liye": 6468,
      "okulu": 6469,
      "ĠFransÄ±zca": 6470,
      "Ġgazeteci": 6471,
      "ĠnumaralÄ±": 6472,
      "Ġ95": 6473,
      "GÃ¶r": 6474,
      "icago": 6475,
      "aga": 6476,
      "ĠÃ§alÄ±ÅŁmasÄ±": 6477,
      "AC": 6478,
      "ĠAug": 6479,
      "ĠrÃ¼tb": 6480,
      "ular": 6481,
      "tikten": 6482,
      "Ġsaray": 6483,
      "Ġetik": 6484,
      "uni": 6485,
      "ĠAÅŁk": 6486,
      "ria": 6487,
      "ship": 6488,
      "Ġpetrol": 6489,
      "ĠSir": 6490,
      "ĠDiz": 6491,
      "Ġ73": 6492,
      "Ġotob": 6493,
      "ĠseÃ§ilmiÅŁtir": 6494,
      "ĠKafkas": 6495,
      "DE": 6496,
      "yordu": 6497,
      "ydi": 6498,
      "Ãº": 6499,
      "ĠyardÄ±mcÄ±sÄ±": 6500,
      "ĠSuper": 6501,
      "sis": 6502,
      "alardan": 6503,
      "AlbÃ¼m": 6504,
      "ĠDes": 6505,
      "gusal": 6506,
      "ayir": 6507,
      "ĠBoz": 6508,
      "sion": 6509,
      "ĠHey": 6510,
      "duc": 6511,
      "Az": 6512,
      "Ġsonradan": 6513,
      "alli": 6514,
      "Ġdisk": 6515,
      "Ġtaht": 6516,
      "ĠKos": 6517,
      "ĠHem": 6518,
      "Ġ1918": 6519,
      "ĠyaÅŁan": 6520,
      "ĠonlarÄ±n": 6521,
      "ĠoluÅŁtuÄŁu": 6522,
      "Ġ1947": 6523,
      "Ġdost": 6524,
      "ĠStadyum": 6525,
      "iÅŁki": 6526,
      "Ġpap": 6527,
      "ĠNev": 6528,
      "ĠkontluÄŁunda": 6529,
      "MÃĸ": 6530,
      "Ġdurumunda": 6531,
      "Ġtren": 6532,
      "ĠTep": 6533,
      "ĠAlek": 6534,
      "Ser": 6535,
      "ĠOd": 6536,
      "Ġperson": 6537,
      "Ġtemiz": 6538,
      "Ġ1949": 6539,
      "ĠNec": 6540,
      "rev": 6541,
      "ÅĤ": 6542,
      "Ġhac": 6543,
      "1977": 6544,
      ".'": 6545,
      "win": 6546,
      "Ġbiz": 6547,
      "day": 6548,
      "oid": 6549,
      "ĠHaf": 6550,
      "ansiyel": 6551,
      "ĠyayÄ±nlan": 6552,
      "Ġkadros": 6553,
      "ĠMih": 6554,
      "Ä±sÄ±yla": 6555,
      "Ġmikro": 6556,
      "ĠBalkan": 6557,
      "Ġonur": 6558,
      "endik": 6559,
      "ĠTro": 6560,
      "Ġpilot": 6561,
      "ĠkullanÄ±larak": 6562,
      "iÄŁin": 6563,
      "omo": 6564,
      "ĠTekn": 6565,
      "Ġteknoloj": 6566,
      "Ġnef": 6567,
      "ations": 6568,
      "une": 6569,
      "ĠArdÄ±ndan": 6570,
      "Ġ69": 6571,
      "Ġterim": 6572,
      "ĠSosyalist": 6573,
      "ograph": 6574,
      "ales": 6575,
      "ĠKa": 6576,
      "ĠGran": 6577,
      "III": 6578,
      "Kur": 6579,
      "avar": 6580,
      "Ġ86": 6581,
      "Ð´": 6582,
      "cher": 6583,
      "ĠiliÅŁkili": 6584,
      "ĠkitaplarÄ±": 6585,
      "Ġoynayan": 6586,
      "ĠMik": 6587,
      "ĠMilli": 6588,
      "rum": 6589,
      "Ġmen": 6590,
      "ayÄ±p": 6591,
      "ĠbabasÄ±nÄ±n": 6592,
      "tainment": 6593,
      "ters": 6594,
      "ĠimzaladÄ±": 6595,
      "rin": 6596,
      "Ġfestiv": 6597,
      "ĠaktÃ¶r": 6598,
      "Futbol": 6599,
      "Ġ1938": 6600,
      "ĠGÃ¼reÅŁ": 6601,
      "ĠNational": 6602,
      "1974": 6603,
      "Ã§ilik": 6604,
      "Ġgar": 6605,
      "efi": 6606,
      "ĠÃ¶ÄŁrenciler": 6607,
      "ĠYÄ±lmaz": 6608,
      "Ä°ran": 6609,
      "Ġalfab": 6610,
      "Ġetki": 6611,
      "1975": 6612,
      "ÅŁiv": 6613,
      "ĠLet": 6614,
      "Ãĸn": 6615,
      "Ġfos": 6616,
      "ĠniÅŁ": 6617,
      "ĠYÃ¶netim": 6618,
      "TC": 6619,
      "ĠKÄ±sa": 6620,
      "ĠgeÃ§ici": 6621,
      "ider": 6622,
      "Ġsubay": 6623,
      "ilmesine": 6624,
      "Ġyetkil": 6625,
      "Ġbasketbolcular": 6626,
      "ĠVik": 6627,
      "xford": 6628,
      "ĠtakÄ±mlarÄ±": 6629,
      "Ġmesaj": 6630,
      "ĠLes": 6631,
      "uvarÄ±": 6632,
      "Ġpl": 6633,
      "Ġmektup": 6634,
      "Ġanay": 6635,
      "ville": 6636,
      "ĠyarÄ±m": 6637,
      "arch": 6638,
      "ĠdÃ¼zenli": 6639,
      "ĠSad": 6640,
      "ĠÃľst": 6641,
      "ets": 6642,
      "Ġfay": 6643,
      "tures": 6644,
      "ĠsÃ¶zcÃ¼": 6645,
      "1973": 6646,
      "AÄŁ": 6647,
      "Ġherkes": 6648,
      "ĠCas": 6649,
      "ilenin": 6650,
      "ĠBarb": 6651,
      "Ġdavet": 6652,
      "ĠVenedik": 6653,
      "Ã¼cut": 6654,
      "ĠnoktasÄ±": 6655,
      "Ger": 6656,
      "rie": 6657,
      "film": 6658,
      "lenmektedir": 6659,
      "ĠÃ¶rt": 6660,
      "Ġduyurdu": 6661,
      "ĠyaÅŁÄ±ndayken": 6662,
      "ety": 6663,
      "ĠÃ¶ÄŁrenci": 6664,
      "Ġklip": 6665,
      "ĠyazÄ±lmÄ±ÅŁ": 6666,
      "demir": 6667,
      "Ġ(;": 6668,
      "ĠkaÃ§Ä±r": 6669,
      "ĠgerÃ§ekleÅŁtirilen": 6670,
      "ĠteÅŁvik": 6671,
      "Ġbenzeri": 6672,
      "ĠInternational": 6673,
      "ĠparÃ§a": 6674,
      "ĠulaÅŁÄ±m": 6675,
      "Ġtehdit": 6676,
      "Ã¶mÃ¼r": 6677,
      "cÄ±k": 6678,
      "dÃ¼n": 6679,
      "Ġaraz": 6680,
      "ĠitibarÄ±": 6681,
      "eck": 6682,
      "pa": 6683,
      "abileceÄŁini": 6684,
      "gam": 6685,
      "Ġ79": 6686,
      "ĠDanimarka": 6687,
      "Ġ1919": 6688,
      "ĠiÃ§i": 6689,
      "duk": 6690,
      "ture": 6691,
      "Ġ87": 6692,
      "Arap": 6693,
      "Ä°kinci": 6694,
      "On": 6695,
      "Ġmensubu": 6696,
      "ĠbaÄŁlÄ±dÄ±r": 6697,
      "landÄ±ÄŁÄ±": 6698,
      "ete": 6699,
      "Ġmolek": 6700,
      "ĠkarÅŁÄ±laÅŁtÄ±r": 6701,
      "ĠdoÄŁa": 6702,
      "Ġsite": 6703,
      "ĠEc": 6704,
      "avy": 6705,
      "ĠMary": 6706,
      "ques": 6707,
      "Ġrej": 6708,
      "ĠkarÅŁÄ±n": 6709,
      "aÅŁÄ±": 6710,
      "Ġ99": 6711,
      "iÃ§ek": 6712,
      "mes": 6713,
      "tarÄ±": 6714,
      "Ġmeclis": 6715,
      "ĠYeÅŁil": 6716,
      "Ġsahipti": 6717,
      "bridge": 6718,
      "ĠfaktÃ¶r": 6719,
      "biy": 6720,
      "ĠKav": 6721,
      "ĠaltÄ±ndaki": 6722,
      "Ġsinem": 6723,
      "ĠLatin": 6724,
      "ĠEntertainment": 6725,
      "Ġisimler": 6726,
      "seri": 6727,
      "ĠBarÄ±ÅŁ": 6728,
      "adiÅŁ": 6729,
      "likleri": 6730,
      "ĠkulÃ¼pleri": 6731,
      "ĠLeon": 6732,
      "ook": 6733,
      "uncu": 6734,
      "ces": 6735,
      "Ġsul": 6736,
      "Ġevlilik": 6737,
      "elikle": 6738,
      "Ġ71": 6739,
      "ĠÃ¶lÃ¼mÃ¼": 6740,
      "ĠkullanÄ±r": 6741,
      "Ġ97": 6742,
      "eddin": 6743,
      "ĠVictor": 6744,
      "Ġkahraman": 6745,
      "Ġ83": 6746,
      "lerindeki": 6747,
      "roid": 6748,
      "Ġeserler": 6749,
      "ĠyapÄ±mcÄ±": 6750,
      "ĠModern": 6751,
      "iÅŁkin": 6752,
      "Ġ;": 6753,
      "lic": 6754,
      "Ġmahkem": 6755,
      "ĠtÃ¼ket": 6756,
      "Ġanti": 6757,
      "Cumhuriyet": 6758,
      "ĠBig": 6759,
      "Ġ1936": 6760,
      "ĠÃ§Ä±kart": 6761,
      "ĠHavalimanÄ±": 6762,
      "ĠGÃ¶lÃ¼": 6763,
      "ĠNight": 6764,
      "Ġgelecek": 6765,
      "ĠRol": 6766,
      "ĠLim": 6767,
      "Ġantren": 6768,
      "Ġistifa": 6769,
      "Ġsistemleri": 6770,
      "ĠÃĸzgÃ¼r": 6771,
      "Ġyerli": 6772,
      "Ġuzan": 6773,
      "Ġgezegen": 6774,
      "kor": 6775,
      "ahtar": 6776,
      "ĠFa": 6777,
      "ĠJackson": 6778,
      "areti": 6779,
      "ĠNov": 6780,
      "ĠaÃ§Ä±ldÄ±": 6781,
      "Ġclass": 6782,
      "Ä°st": 6783,
      "ĠNas": 6784,
      "ĠhalkÄ±": 6785,
      "Ġ1933": 6786,
      "Macar": 6787,
      "Ġob": 6788,
      "2023": 6789,
      "ĠdalÄ±nda": 6790,
      "ĠrÃ¶portaj": 6791,
      "ĠyukarÄ±": 6792,
      "ady": 6793,
      "Oyuncular": 6794,
      "Ġ1951": 6795,
      "akkale": 6796,
      "Tem": 6797,
      "Ġvermek": 6798,
      "dim": 6799,
      "odi": 6800,
      "Ġanime": 6801,
      "Ġlisteleri": 6802,
      "Ġkanser": 6803,
      "lie": 6804,
      "ordin": 6805,
      "http": 6806,
      "Fran": 6807,
      "Ġanimasyon": 6808,
      "Ã¼el": 6809,
      "ĠYine": 6810,
      "Erkekler": 6811,
      "ĠYay": 6812,
      "Ġolmadan": 6813,
      "mac": 6814,
      "tÃ¼rk": 6815,
      "ĠLife": 6816,
      "ĠÅŀark": 6817,
      "ĠElekt": 6818,
      ";\"|": 6819,
      "ferans": 6820,
      "BÃ¶lÃ¼m": 6821,
      "vel": 6822,
      "Ġyasal": 6823,
      "Ġwebs": 6824,
      "ĠkatÄ±": 6825,
      "ĠnÃ¼kleer": 6826,
      "ĠsÄ±caklÄ±k": 6827,
      "eta": 6828,
      "ĠKart": 6829,
      "ĠAntalya": 6830,
      "ĠTÃ¼rkÃ§": 6831,
      "arruz": 6832,
      "uÅŁu": 6833,
      "raj": 6834,
      "John": 6835,
      "aza": 6836,
      "ĠfarklÄ±lÄ±k": 6837,
      "ĠsÃ¶zleÅŁ": 6838,
      "Ġmuhaf": 6839,
      "mamÄ±ÅŁtÄ±r": 6840,
      "ĠLaw": 6841,
      "ĠBilin": 6842,
      "ĠSÄ±rbistan": 6843,
      "luluk": 6844,
      "Ġfinale": 6845,
      "Ġbirbirine": 6846,
      "ikler": 6847,
      "ilerden": 6848,
      "500": 6849,
      "pen": 6850,
      "ĠsÃ¶zcÃ¼k": 6851,
      "ĠKatalog": 6852,
      "Azerbaycan": 6853,
      "ĠbÃ¼r": 6854,
      "ĠAj": 6855,
      "ĠaracÄ±": 6856,
      "ĠkÃ¶ÅŁ": 6857,
      "adÄ±ktan": 6858,
      "uke": 6859,
      "1969": 6860,
      "82": 6861,
      "ĠNobel": 6862,
      "lob": 6863,
      "lÃ¼ÄŁÃ¼nÃ¼": 6864,
      "Ġkoruma": 6865,
      "Ġdevrim": 6866,
      "ĠdirektÃ¶rler": 6867,
      "ĠMadrid": 6868,
      "likle": 6869,
      "Ġatom": 6870,
      "ĠgÃ¶sterildi": 6871,
      "VID": 6872,
      "Ñĭ": 6873,
      "Ġ1925": 6874,
      "ĠMont": 6875,
      "ĠayrÄ±lÄ±r": 6876,
      "SonuÃ§lar": 6877,
      "UluslararasÄ±": 6878,
      "iner": 6879,
      "unus": 6880,
      "Can": 6881,
      "ason": 6882,
      "ierre": 6883,
      "ĠsÃ¼per": 6884,
      "ĠkayÄ±p": 6885,
      "ĠSaÄŁlÄ±k": 6886,
      "Ġteleskopla": 6887,
      "Ġ89": 6888,
      "Ġsemt": 6889,
      "ĠMid": 6890,
      "Ġfeth": 6891,
      "1971": 6892,
      "ĠSekret": 6893,
      "ĠgÃ¶ren": 6894,
      "atÄ±cÄ±": 6895,
      "ĠAmerikalÄ±lar": 6896,
      "Ġemekli": 6897,
      "AS": 6898,
      "ĠmÃ¼r": 6899,
      "ĠTicaret": 6900,
      "ilip": 6901,
      "etleri": 6902,
      "Ġ120": 6903,
      "ĠbÄ±raktÄ±": 6904,
      "inn": 6905,
      "atlar": 6906,
      "Ġtekli": 6907,
      "Ġorganizasyon": 6908,
      "je": 6909,
      "ĠÄ±ÅŁ": 6910,
      "ison": 6911,
      "alÄ±lar": 6912,
      "elerle": 6913,
      "size": 6914,
      "ĠSED": 6915,
      "apÄ±": 6916,
      "Ġversiyonu": 6917,
      "veya": 6918,
      "ĠÃ¼s": 6919,
      "ĠÄ±ÅŁÄ±": 6920,
      "Ġzafer": 6921,
      "ĠAnavatan": 6922,
      "Ġhaned": 6923,
      "resi": 6924,
      "ĠhatÄ±r": 6925,
      "Un": 6926,
      "Ġdayanan": 6927,
      "ĠÃĸmer": 6928,
      "ĠsÃ¼rÃ¼l": 6929,
      "esliga": 6930,
      "well": 6931,
      "ĠhoÅŁ": 6932,
      "azz": 6933,
      "ĠbÃ¼yÃ¼": 6934,
      "ĠSav": 6935,
      "Ġep": 6936,
      "pÄ±nar": 6937,
      "ĠYugoslav": 6938,
      "dÄ±rÄ±m": 6939,
      "ĠolduklarÄ±": 6940,
      "Ġkadro": 6941,
      "ĠHistory": 6942,
      "ĠbastÄ±r": 6943,
      "lendirme": 6944,
      "Ġsinir": 6945,
      "ĠDam": 6946,
      "abi": 6947,
      "Ġsonu": 6948,
      "Ġ300": 6949,
      "Ä°zmir": 6950,
      "Ġgalibiyet": 6951,
      "81": 6952,
      "tek": 6953,
      "undesliga": 6954,
      "emesi": 6955,
      "indi": 6956,
      "Ġkm": 6957,
      "its": 6958,
      "ĠKurul": 6959,
      "vanÄ±": 6960,
      "ĠHers": 6961,
      "ĠAfgan": 6962,
      "gon": 6963,
      "ÄŁim": 6964,
      "ĠtanÄ±ÅŁ": 6965,
      "ĠSEDS": 6966,
      "VD": 6967,
      "ektif": 6968,
      "Ġelinde": 6969,
      "Ġalmaya": 6970,
      "ÄŁÃ¼nde": 6971,
      "eyrek": 6972,
      "iÅŁe": 6973,
      "ebe": 6974,
      "ĠFilistin": 6975,
      "yaspor": 6976,
      "Ġbirisi": 6977,
      "asan": 6978,
      "Ġstadyum": 6979,
      "lenebilir": 6980,
      "Ġedecek": 6981,
      "ĠbeÄŁ": 6982,
      "ĠAziz": 6983,
      "Ġkazananlar": 6984,
      "Defans": 6985,
      "ĠÃĩift": 6986,
      "ĠDiyarbakÄ±r": 6987,
      "ĠdoÄŁan": 6988,
      "800": 6989,
      "ĠNorth": 6990,
      "ĠWr": 6991,
      "Ġasit": 6992,
      "Ġdemokr": 6993,
      "Ġailesinin": 6994,
      "DP": 6995,
      "ĠarttÄ±r": 6996,
      "ement": 6997,
      "Uz": 6998,
      "ĠteÅŁkil": 6999,
      "Ne": 7000,
      "Ġkuy": 7001,
      "Ġ1935": 7002,
      "ĠYÃ¼zÃ¶lÃ§Ã¼mÃ¼": 7003,
      "Re": 7004,
      "ĠÄ±rk": 7005,
      "Ġbank": 7006,
      "ĠkÄ±l": 7007,
      "1967": 7008,
      "ĠNokia": 7009,
      "ĠbirliÄŁi": 7010,
      "Ġonlara": 7011,
      "ĠdayalÄ±": 7012,
      "ĠiliÅŁki": 7013,
      "Ġtanr": 7014,
      "Ġelektronik": 7015,
      "ĠGÃ¶kyÃ¼zÃ¼nde": 7016,
      "AN": 7017,
      "ĠPrix": 7018,
      "umsuz": 7019,
      "laÅŁÄ±k": 7020,
      "dere": 7021,
      "ĠFatih": 7022,
      "Ġvan": 7023,
      "Ã«": 7024,
      "ĠgerÃ§ekleÅŁen": 7025,
      "ĠArabistan": 7026,
      "Ġ91": 7027,
      "ĠkÃ¼tle": 7028,
      "ĠbakÄ±ÅŁ": 7029,
      "Profesyonel": 7030,
      "aten": 7031,
      "ĠBan": 7032,
      "Ä±ma": 7033,
      "Ġince": 7034,
      "alanan": 7035,
      "ĠGÃ¼nÃ¼mÃ¼zde": 7036,
      "Ġmaruz": 7037,
      "ĠKulÃ¼bÃ¼": 7038,
      "Ġyarg": 7039,
      "ayarak": 7040,
      "ĠSci": 7041,
      "ĠgÃ¼nÃ¼mÃ¼ze": 7042,
      "ĠKÄ±ÅŁ": 7043,
      "Ġtoplamda": 7044,
      "Ġvermektedir": 7045,
      "Ġisten": 7046,
      "ator": 7047,
      "itar": 7048,
      "okul": 7049,
      "Ġkurulu": 7050,
      "Ġ1937": 7051,
      "Ġgerilim": 7052,
      "Ġgruplar": 7053,
      "ĠÃ¶nceden": 7054,
      "ĠdÃ¶k": 7055,
      "ĠPek": 7056,
      "Ġ92": 7057,
      "miÅŁlerdir": 7058,
      "1950": 7059,
      "mad": 7060,
      "och": 7061,
      "Ġpiyan": 7062,
      "ĠbÃ¶lgeye": 7063,
      "ĠprogramlarÄ±": 7064,
      "ĠChampion": 7065,
      "gor": 7066,
      "Ġbelediyeleri": 7067,
      "ĠTopluluÄŁu": 7068,
      "ĠsarÄ±": 7069,
      "ĠFr": 7070,
      "ĠnÃ¶": 7071,
      "ÄŁretim": 7072,
      "iÅŁli": 7073,
      "ĠkulÃ¼bÃ¼": 7074,
      "ĠWilliams": 7075,
      "Ben": 7076,
      "aÄŁÄ±nda": 7077,
      "ĠSelÃ§uklu": 7078,
      "Ñı": 7079,
      "Ġhayatta": 7080,
      "ĠUnivers": 7081,
      "ÃĸlÃ¼mÃ¼": 7082,
      "ĠDNA": 7083,
      "Sam": 7084,
      "ĠyaÅŁanan": 7085,
      "ĠErdoÄŁan": 7086,
      "Ġeleme": 7087,
      "Ġister": 7088,
      "tikleri": 7089,
      "ĠdaÄŁÄ±lÄ±m": 7090,
      "ilerde": 7091,
      "ĠAntik": 7092,
      "ĠgirmiÅŁtir": 7093,
      "SÃ¼per": 7094,
      "Ġolumlu": 7095,
      "ĠAng": 7096,
      "Ġreklam": 7097,
      "ĠMHP": 7098,
      "ĠClub": 7099,
      "ĠStan": 7100,
      "ĠYusuf": 7101,
      "ardin": 7102,
      "Ġzirv": 7103,
      "Ġyeterli": 7104,
      "Ġbunlar": 7105,
      "IA": 7106,
      "madÄ±ÄŁÄ±": 7107,
      "Ã¼man": 7108,
      "Ġtahta": 7109,
      "ĠCeph": 7110,
      "ĠgeÃ§miÅŁtir": 7111,
      "ĠKraliyet": 7112,
      "ĠGÃ¼venlik": 7113,
      "liliÄŁi": 7114,
      "lanabilir": 7115,
      "ĠFootball": 7116,
      "yp": 7117,
      "ĠkiÅŁidir": 7118,
      "ĠgÃ¶rÃ¼lmektedir": 7119,
      "ĠprodÃ¼k": 7120,
      "ĠyetiÅŁ": 7121,
      "ĠkÃ¼resel": 7122,
      "ĠBabasÄ±": 7123,
      "Ġisted": 7124,
      "ĠBankasÄ±": 7125,
      "Ã¼ce": 7126,
      "ĠRam": 7127,
      "tihar": 7128,
      "ĠgeldiÄŁi": 7129,
      "Ġikili": 7130,
      "83": 7131,
      "ĠBart": 7132,
      "steri": 7133,
      "Ġleh": 7134,
      "ĠOrtodoks": 7135,
      "Sal": 7136,
      "ĠKurumu": 7137,
      "ĠErmenistan": 7138,
      "Ġreform": 7139,
      "ĠMakedonya": 7140,
      "mekteydi": 7141,
      "Ġsene": 7142,
      "irin": 7143,
      "ĠkÄ±t": 7144,
      "Ġge": 7145,
      "ĠDu": 7146,
      "áĥĲáĥ": 7147,
      "Ġteorisi": 7148,
      "ĠEÄŁer": 7149,
      "iyade": 7150,
      "nep": 7151,
      "ĠNBA": 7152,
      "ĠbaÅŁladÄ±ÄŁÄ±": 7153,
      "ĠRomanya": 7154,
      "ĠKalesi": 7155,
      "ĠbeÅŁinci": 7156,
      "Ġefsan": 7157,
      "aÄŁÄ±nÄ±n": 7158,
      "mÄ±ÅŁlardÄ±r": 7159,
      "ÃľÃ§": 7160,
      "Ġbelgesel": 7161,
      "ceÄŁini": 7162,
      "Ġsosy": 7163,
      "'''": 7164,
      "Ġbitirdi": 7165,
      "adiÅŁah": 7166,
      "ĠHizmet": 7167,
      "Ġrefer": 7168,
      "ĠFinlandiya": 7169,
      "Ġfi": 7170,
      "Ġfiyat": 7171,
      "ĠsÃ¼rdÃ¼rdÃ¼": 7172,
      "urus": 7173,
      "Ä±yorum": 7174,
      "ym": 7175,
      "ĠKud": 7176,
      "ĠyaÅŁamÄ±": 7177,
      "ĠVideo": 7178,
      "ĠdesteÄŁi": 7179,
      "Ġsonuna": 7180,
      "Mehmet": 7181,
      "Muh": 7182,
      "ÄŁe": 7183,
      "Ġbiriydi": 7184,
      "ĠadayÄ±": 7185,
      "Ġsarmal": 7186,
      "ĠuÄŁraÅŁ": 7187,
      "Ġez": 7188,
      "ĠyÃ¶nel": 7189,
      "1966": 7190,
      "mun": 7191,
      "web": 7192,
      "Ã§Ä±lÄ±k": 7193,
      "ĠFred": 7194,
      "ĠOkul": 7195,
      "Ġbilm": 7196,
      "ĠBre": 7197,
      "Ġhidro": 7198,
      "Ġunsur": 7199,
      "ĠÅŀam": 7200,
      "atma": 7201,
      "ĠStal": 7202,
      "ĠPav": 7203,
      "Ġzamanlarda": 7204,
      "ology": 7205,
      "Ġceza": 7206,
      "Ġbesteci": 7207,
      "ĠGol": 7208,
      "Ġkorku": 7209,
      "ĠJim": 7210,
      "ĠÃ¼niversite": 7211,
      "Ġkilometre": 7212,
      "tes": 7213,
      "ĠShe": 7214,
      "gn": 7215,
      "Ġbirimi": 7216,
      "Ġdilleri": 7217,
      "Ä°spanyol": 7218,
      "Don": 7219,
      "Ġcilt": 7220,
      "ĠDaniel": 7221,
      "ĠyatÄ±rÄ±m": 7222,
      "ĠHall": 7223,
      "Ġaj": 7224,
      "ĠKurtuluÅŁ": 7225,
      "Afrik": 7226,
      "ĠViyana": 7227,
      "ĠsÄ±nÄ±rlÄ±": 7228,
      "ĠadlandÄ±rÄ±lÄ±r": 7229,
      "ĠAtlan": 7230,
      "Ġolaylar": 7231,
      "ederasyon": 7232,
      "ĠyayÄ±nlanmÄ±ÅŁtÄ±r": 7233,
      "Ġ1922": 7234,
      "ĠbaÅŁlandÄ±": 7235,
      "ĠdÄ±ÅŁarÄ±": 7236,
      "ĠNiÅŁanÄ±": 7237,
      "Ã¼yordu": 7238,
      "ĠgÃ¼z": 7239,
      "Disk": 7240,
      "imir": 7241,
      "ĠYÃ¶netmen": 7242,
      "imari": 7243,
      "Ġ1934": 7244,
      "ĠBek": 7245,
      "Tarihi": 7246,
      "ea": 7247,
      "ĠFÄ±r": 7248,
      "uki": 7249,
      "ĠmaÄŁlup": 7250,
      "ordu": 7251,
      "ĠBob": 7252,
      "Ä±ldÄ±ÄŁÄ±nda": 7253,
      "ĠkatkÄ±da": 7254,
      "Ġ1921": 7255,
      "ĠfigÃ¼r": 7256,
      "Ġkarbon": 7257,
      "Ġismini": 7258,
      "cÄ±nÄ±n": 7259,
      "ox": 7260,
      "Ġkarakteri": 7261,
      "ĠGoogle": 7262,
      "Ġsorum": 7263,
      "kent": 7264,
      "Ġkaybol": 7265,
      "1964": 7266,
      "Ġdijital": 7267,
      "ĠRa": 7268,
      "gia": 7269,
      "raÄŁÄ±": 7270,
      "ĠBud": 7271,
      "ĠbÃ¶lgenin": 7272,
      "Ġje": 7273,
      "ĠDevrimi": 7274,
      "lal": 7275,
      "ĠNic": 7276,
      "erisi": 7277,
      "Ġ1926": 7278,
      "ĠvarlÄ±ÄŁÄ±": 7279,
      "Ġekibi": 7280,
      "ĠSelim": 7281,
      "Ġhareketi": 7282,
      "EÄŁ": 7283,
      "âĢĶ": 7284,
      "Ġbronz": 7285,
      "Ġkendisinin": 7286,
      "Ġyir": 7287,
      "Ġhasar": 7288,
      "ĠSimon": 7289,
      "Ġokudu": 7290,
      "Ġkapasit": 7291,
      "ude": 7292,
      "Ġtez": 7293,
      "awa": 7294,
      "Sur": 7295,
      "Ġgec": 7296,
      "ĠKi": 7297,
      "Ä±lÄ±ÄŁÄ±nda": 7298,
      "eynep": 7299,
      "ĠGram": 7300,
      "ĠgÃ¶revlendir": 7301,
      "Ġdeprem": 7302,
      "obi": 7303,
      "{|": 7304,
      "ĠalanlarÄ±": 7305,
      "AÅŁaÄŁÄ±": 7306,
      "Ä±lmasÄ±nÄ±": 7307,
      "Ġhalka": 7308,
      "Ġmir": 7309,
      "Ġkolon": 7310,
      "malÄ±dÄ±r": 7311,
      "bar": 7312,
      "ĠDef": 7313,
      "Ġcinayet": 7314,
      "Ġkoruy": 7315,
      "Ġtoplumsal": 7316,
      "Ġtarihsel": 7317,
      "ĠÄ°lin": 7318,
      "âĢĿ,": 7319,
      "Seri": 7320,
      "Ġvad": 7321,
      "ĠyakÄ±nlarÄ±nda": 7322,
      "Ġmakam": 7323,
      "ĠbaÅŁkanlarÄ±": 7324,
      "ropol": 7325,
      "darÄ±": 7326,
      "ĠsilahlÄ±": 7327,
      "ĠFried": 7328,
      "YP": 7329,
      "ĠCamp": 7330,
      "ĠÄ°nternet": 7331,
      "Ġmel": 7332,
      "ĠBrown": 7333,
      "ĠMi": 7334,
      "Ġkov": 7335,
      "Ġhalde": 7336,
      "Ã¼cu": 7337,
      "eton": 7338,
      "Ġederken": 7339,
      "ĠÅŀeh": 7340,
      "Ġkimya": 7341,
      "ĠLuc": 7342,
      "lasman": 7343,
      "ĠbaÅŁkanlÄ±ÄŁÄ±": 7344,
      "ulmuÅŁtur": 7345,
      "ĠeÄŁer": 7346,
      "Ġgenelde": 7347,
      "ĠÃ§ocuklarÄ±": 7348,
      "fred": 7349,
      "kurgu": 7350,
      "ĠHaw": 7351,
      "Ġdalga": 7352,
      "ĠAbdullah": 7353,
      "ĠyeÅŁil": 7354,
      "ĠÃ§evres": 7355,
      "Ġdefnedilen": 7356,
      "Forvet": 7357,
      "ĠfamilyasÄ±dÄ±r": 7358,
      "ĠpolitikacÄ±": 7359,
      "rick": 7360,
      "ĠDÃ¼n": 7361,
      "Ġuygulama": 7362,
      "Ã¸": 7363,
      "ĠKahraman": 7364,
      "ĠDor": 7365,
      "Ġalternatif": 7366,
      "Ġkuz": 7367,
      "ĠsaÄŁlay": 7368,
      "Ã§Ä±lar": 7369,
      "Ä°sveÃ§": 7370,
      "aklarÄ±": 7371,
      "Ġdizisinde": 7372,
      "zade": 7373,
      "ĠimkÃ¢n": 7374,
      "Ġdepol": 7375,
      "ĠSom": 7376,
      "usa": 7377,
      "ĠgÃ¶v": 7378,
      "mond": 7379,
      "wik": 7380,
      "Ġerdi": 7381,
      "Ġistih": 7382,
      "ĠSSC": 7383,
      "ĠzÄ±rh": 7384,
      "ĠUp": 7385,
      "ĠYal": 7386,
      "ĠgerÃ§ekleÅŁti": 7387,
      "ĠKurt": 7388,
      "1965": 7389,
      "ĉĉ": 7390,
      "ĠPub": 7391,
      "Ġraki": 7392,
      "Ä±lmasÄ±na": 7393,
      "Ġ94": 7394,
      "ĠBillboard": 7395,
      "ĠtÃ¼f": 7396,
      "ĠKe": 7397,
      "ĠCompany": 7398,
      "lot": 7399,
      "ĠgÃ¶rÃ¼r": 7400,
      "Ġceph": 7401,
      "ĠkomutanÄ±": 7402,
      "Ġgemi": 7403,
      "Ã¶rÃ¼": 7404,
      "opolis": 7405,
      "ĠVad": 7406,
      "Ġex": 7407,
      "ĠyaklaÅŁÄ±m": 7408,
      "sul": 7409,
      "ree": 7410,
      "Ġkalk": 7411,
      "ĠeÄŁlen": 7412,
      "Ġmetr": 7413,
      "rowspan": 7414,
      "abeth": 7415,
      "Ġsezonda": 7416,
      "Ġmodeli": 7417,
      "KiÅŁ": 7418,
      "gat": 7419,
      "Ġrisk": 7420,
      "Ġtank": 7421,
      "ĠÄ°ÅŁÃ§i": 7422,
      "ĠUluslar": 7423,
      "ĠMahkemesi": 7424,
      "Ġdefnedilenler": 7425,
      "Ġyaprak": 7426,
      "Ġokum": 7427,
      "ĠKÄ±rÄ±m": 7428,
      "sia": 7429,
      "liÄŁindeki": 7430,
      "Ġ1923": 7431,
      "okol": 7432,
      "ĠÃ§atÄ±ÅŁ": 7433,
      "Dan": 7434,
      "Kas": 7435,
      "ĠBi": 7436,
      "ĠTime": 7437,
      "ĠFac": 7438,
      "ĠBirÃ§ok": 7439,
      "ĠkazandÄ±r": 7440,
      "Ġtec": 7441,
      "ĠÃĩay": 7442,
      "ĠyÃ¼rÃ¼y": 7443,
      "ĠTy": 7444,
      "Ġharit": 7445,
      "Äŀ": 7446,
      "ĠinÅŁaat": 7447,
      "Ġkorumak": 7448,
      "ĠbaÅŁkent": 7449,
      "ĠÃ§Ã¶k": 7450,
      "ĠkarÄ±ÅŁtÄ±r": 7451,
      "ĠparÃ§acÄ±k": 7452,
      "Ġrenkli": 7453,
      "Ġkoc": 7454,
      "ĠYarÄ±m": 7455,
      "Ä±bbi": 7456,
      "ĠKast": 7457,
      "lit": 7458,
      "lerdi": 7459,
      "Ã¼llÃ¼": 7460,
      "ĠSong": 7461,
      "ĠÃ¶lÃ¼mÃ¼ne": 7462,
      "DF": 7463,
      "ĠHel": 7464,
      "ĠÅŁimdi": 7465,
      "ĠÅŁeh": 7466,
      "ĠettiÄŁini": 7467,
      "Ġ1924": 7468,
      "ĠBirleÅŁmiÅŁ": 7469,
      "ĠMadal": 7470,
      "gresi": 7471,
      "emat": 7472,
      "ĠyÃ¶netmenliÄŁini": 7473,
      "ĠkullandÄ±ÄŁÄ±": 7474,
      "ĠÃ§ekti": 7475,
      "serleri": 7476,
      "Ġpartiler": 7477,
      "Siyas": 7478,
      "ding": 7479,
      "ĠTo": 7480,
      "ĠalÄ±nmÄ±ÅŁtÄ±r": 7481,
      "ĠkatÄ±ldÄ±ÄŁÄ±": 7482,
      "aker": 7483,
      "ĠKÃ¶rf": 7484,
      "ĠÅŁer": 7485,
      "ĠJer": 7486,
      "Ġisteyen": 7487,
      "Ġaittir": 7488,
      "Ulusal": 7489,
      "mini": 7490,
      "ĠSoy": 7491,
      "ĠbÃ¶lÃ¼mleri": 7492,
      "uda": 7493,
      "Ġistedi": 7494,
      "ĠChicago": 7495,
      "ĠOrhan": 7496,
      "ĠoluÅŁum": 7497,
      "ĠsÄ±vÄ±": 7498,
      "Ġdergisi": 7499,
      "Ġaf": 7500,
      "ĠboÄŁ": 7501,
      "larus": 7502,
      "uydu": 7503,
      "ardo": 7504,
      "Ġseyir": 7505,
      "Ġmiktarda": 7506,
      "Ġliman": 7507,
      "Sc": 7508,
      "ĠMilletvek": 7509,
      "Ġincelen": 7510,
      "Biy": 7511,
      "ĠaralarÄ±nda": 7512,
      "Bey": 7513,
      "ĠkalÄ±r": 7514,
      "Ä±tlar": 7515,
      "Ġevlen": 7516,
      "ĠJohan": 7517,
      "Aday": 7518,
      "ebilecek": 7519,
      "ĠkÄ±sÄ±t": 7520,
      "Ġ1927": 7521,
      "ĠsÃ¼resi": 7522,
      "ijer": 7523,
      "Ġbirinin": 7524,
      "imet": 7525,
      "Ġfilmidir": 7526,
      "ĠDie": 7527,
      "abilmek": 7528,
      "ĠCOVID": 7529,
      "ule": 7530,
      "jik": 7531,
      "kov": 7532,
      "Ð¹": 7533,
      "Ð¼": 7534,
      "ĠÅŁif": 7535,
      "tris": 7536,
      "Ġkanat": 7537,
      "ĠBrezilyalÄ±": 7538,
      "ĠEskiÅŁehir": 7539,
      "antaj": 7540,
      "isindeki": 7541,
      "ĠolmadÄ±": 7542,
      "ĠzamanÄ±nda": 7543,
      "ĠMaria": 7544,
      "Ġtamamlanan": 7545,
      "3333": 7546,
      "ĠÃĸlÃ¼m": 7547,
      "ĠsoÄŁuk": 7548,
      "ĠkontrolÃ¼": 7549,
      "Ġ(?-?),": 7550,
      "Ġsezonunun": 7551,
      "ĠFakÃ¼ltesinde": 7552,
      "lovakya": 7553,
      "Ġdedi": 7554,
      "ĠPa": 7555,
      "lamÄ±ÅŁ": 7556,
      "layÄ±p": 7557,
      "Ġded": 7558,
      "Ġalma": 7559,
      "arsÃ§a": 7560,
      "ietnam": 7561,
      "ador": 7562,
      "ĠOut": 7563,
      "iba": 7564,
      "Ġasist": 7565,
      "odern": 7566,
      "ĠseÃ§ilen": 7567,
      "ĠkÃ¢": 7568,
      "Ġtakson": 7569,
      "hol": 7570,
      "ĠSes": 7571,
      "Ġmang": 7572,
      "ĠYan": 7573,
      "ĠÃ¼rÃ¼nleri": 7574,
      "ĠKoca": 7575,
      "Ġiktidar": 7576,
      "GBT": 7577,
      "par": 7578,
      "lamaya": 7579,
      "Der": 7580,
      "lemeye": 7581,
      "Ġerkekler": 7582,
      "ĠStadyumu": 7583,
      "Ġmis": 7584,
      "ĠmÃ¼ÅŁ": 7585,
      "Ä±sÄ±ndaki": 7586,
      "ĠWat": 7587,
      "ĠKanadalÄ±": 7588,
      "ĠKutsal": 7589,
      "nal": 7590,
      "Ġparlament": 7591,
      "Ġyolcu": 7592,
      "ĠdÃ¼nyada": 7593,
      "ĠSinema": 7594,
      "ĠmutfaÄŁÄ±": 7595,
      "ĠHon": 7596,
      "ĠReg": 7597,
      "ĠCeza": 7598,
      "ĠrahatsÄ±z": 7599,
      "ĠkatÄ±lmÄ±ÅŁtÄ±r": 7600,
      "ĠgÃ¼nde": 7601,
      "Ġanlamda": 7602,
      "ĠArnavutluk": 7603,
      "Kazanan": 7604,
      "larca": 7605,
      "Ġayar": 7606,
      "ĠyarÄ±ÅŁmasÄ±": 7607,
      "ĠdolaÅŁ": 7608,
      "oper": 7609,
      "ĠkaynaklarÄ±": 7610,
      "ĠDaÄŁlarÄ±": 7611,
      "Mart": 7612,
      "ĠMol": 7613,
      "ĠDevrim": 7614,
      "Ġsenaryosunu": 7615,
      "ĠPen": 7616,
      "Amerikan": 7617,
      "AM": 7618,
      "ĠBaba": 7619,
      "ĠkeÅŁif": 7620,
      "log": 7621,
      "dÃ¼z": 7622,
      "ĠAda": 7623,
      "Ġsinyal": 7624,
      "Ð¾Ð²": 7625,
      "ther": 7626,
      "ĠAlexander": 7627,
      "ept": 7628,
      "ĠMimar": 7629,
      "ĠGor": 7630,
      "Ġaksiyon": 7631,
      "ĠHastan": 7632,
      "ĠGaziantep": 7633,
      "Ġiptal": 7634,
      "ER": 7635,
      "oza": 7636,
      "Ġprofili": 7637,
      "Ġkli": 7638,
      "Ġpu": 7639,
      "1963": 7640,
      "ÃĸlÃ¼m": 7641,
      "ĠkapalÄ±": 7642,
      "Ġtabak": 7643,
      "ĠaraÅŁtÄ±rmacÄ±": 7644,
      "Tan": 7645,
      "Ã¼ri": 7646,
      "ĠForm": 7647,
      "ĠaltfamilyasÄ±na": 7648,
      "ĠÃ§evre": 7649,
      "ĠÅŁehridir": 7650,
      "\"'": 7651,
      "cilerin": 7652,
      "edildi": 7653,
      "agu": 7654,
      "Ġgeneral": 7655,
      "ĠhakkÄ±ndaki": 7656,
      "ĠÃ¼yesidir": 7657,
      "Gaz": 7658,
      "ĠKem": 7659,
      "ĠTÃ¼r": 7660,
      "ĠedildiÄŁi": 7661,
      "Ġmeydan": 7662,
      "AK": 7663,
      "Ä±ÄŁ": 7664,
      "ĠvÃ¼cut": 7665,
      "ĠSec": 7666,
      "ĠÃľr": 7667,
      "ĠTokyo": 7668,
      "Ġ1914": 7669,
      "ution": 7670,
      "ĠVlad": 7671,
      "ĠZelanda": 7672,
      "ruk": 7673,
      "ĠSus": 7674,
      "SO": 7675,
      "ĠBerk": 7676,
      "Ġnadir": 7677,
      "ceÄŁi": 7678,
      "Ġrakip": 7679,
      "isip": 7680,
      "ĠWill": 7681,
      "ĠÃĸl": 7682,
      "rij": 7683,
      "uva": 7684,
      "BaÅŁarÄ±larÄ±": 7685,
      "Ġ#": 7686,
      "ĠalbÃ¼mÃ¼n": 7687,
      "amo": 7688,
      "oston": 7689,
      "ĠbatÄ±sÄ±nda": 7690,
      "ĠCD": 7691,
      "Ġekib": 7692,
      "Avustur": 7693,
      "eria": 7694,
      "ĠLive": 7695,
      "ĠArch": 7696,
      "ĠAlmanca": 7697,
      "Ġelektro": 7698,
      "soy": 7699,
      "ĠArk": 7700,
      "ĠMadalyasÄ±": 7701,
      "irli": 7702,
      "urgusal": 7703,
      "ĠanlaÅŁma": 7704,
      "illiÄŁi": 7705,
      "Ġplay": 7706,
      "Ġesir": 7707,
      "Ġailenin": 7708,
      "Ġkilise": 7709,
      "Ġtasvir": 7710,
      "ĠetrafÄ±nda": 7711,
      "Ġsezonun": 7712,
      "1945": 7713,
      "Ġdemiryolu": 7714,
      "Bas": 7715,
      "Per": 7716,
      "ĠgeÃ§erli": 7717,
      "ĠsavaÅŁÄ±": 7718,
      "ĠHayat": 7719,
      "Ġnumaraya": 7720,
      "Station": 7721,
      "Tak": 7722,
      "ĠFi": 7723,
      "Ġkalma": 7724,
      "ĠColle": 7725,
      "hay": 7726,
      "ĠterÃ¶r": 7727,
      "try": 7728,
      "siy": 7729,
      "chel": 7730,
      "ĠiÅŁe": 7731,
      "ĠKupa": 7732,
      "AL": 7733,
      "Ġdom": 7734,
      "ĠArapÃ§a": 7735,
      "BeÅŁ": 7736,
      "lanarak": 7737,
      "ĠHarp": 7738,
      "Ġolmam": 7739,
      "ĠdeÄŁildi": 7740,
      "ĠtakÄ±mlar": 7741,
      "Ġbirlikleri": 7742,
      "6666": 7743,
      "ĠromanlarÄ±": 7744,
      "Ġtemsilcisi": 7745,
      "refektÃ¶r": 7746,
      "--": 7747,
      "EC": 7748,
      "uss": 7749,
      "ĠHacÄ±": 7750,
      "Ġdile": 7751,
      "ĠbakÄ±mÄ±ndan": 7752,
      "Ùħ": 7753,
      "ĠbÃ¼nyesinde": 7754,
      "wig": 7755,
      "ĠkomÃ¼ndÃ¼r": 7756,
      "Ahmet": 7757,
      "ikast": 7758,
      "ĠiÃ§erik": 7759,
      "Ġ150": 7760,
      "ei": 7761,
      "ĠbaÅŁlangÄ±": 7762,
      "Ã»m": 7763,
      "ĠAster": 7764,
      "Ġ1929": 7765,
      "ĠSinan": 7766,
      "Ġyola": 7767,
      "Ġverilm": 7768,
      "Ġhayal": 7769,
      "Ġhangi": 7770,
      "Ter": 7771,
      "ps": 7772,
      "imal": 7773,
      "ĠaydÄ±n": 7774,
      "ĠAtina": 7775,
      "Ġkarakterleri": 7776,
      "Video": 7777,
      "ulus": 7778,
      "Ġzinc": 7779,
      "ĠyaÅŁlÄ±": 7780,
      "tuÄŁ": 7781,
      "Ġkemer": 7782,
      "Ġtay": 7783,
      "eus": 7784,
      "ĠgÃ¶nderildi": 7785,
      "Televizyon": 7786,
      "Ġotor": 7787,
      "ĠClar": 7788,
      "ĠYaÄŁ": 7789,
      "ĠGenellikle": 7790,
      "arÄ±m": 7791,
      "ĠÅŀen": 7792,
      "ĠsÃ¼reci": 7793,
      "ĠoynamÄ±ÅŁtÄ±r": 7794,
      "ĠÃĸnc": 7795,
      "Ġistatistikleri": 7796,
      "Ġinf": 7797,
      "Col": 7798,
      "elin": 7799,
      "iyecek": 7800,
      "Ġordusunun": 7801,
      "Eur": 7802,
      "sÃ¶z": 7803,
      "ĠHans": 7804,
      "ĠFas": 7805,
      "ĠIndi": 7806,
      "ĠÃĸrgÃ¼t": 7807,
      "SavaÅŁ": 7808,
      "oya": 7809,
      "ĠHap": 7810,
      "izmi": 7811,
      "ĠOxford": 7812,
      "Galeri": 7813,
      "ĠyanÄ±t": 7814,
      "ĠÃ§eÅŁ": 7815,
      "ĠsonuÃ§lar": 7816,
      "ĠbabasÄ±dÄ±r": 7817,
      "Ġpen": 7818,
      "uck": 7819,
      "lÃ¼ÄŁe": 7820,
      "Ġth": 7821,
      "ĠtamamÄ±": 7822,
      "Ġtepk": 7823,
      "batÄ±sÄ±nda": 7824,
      "ĠSociety": 7825,
      "ĠtapÄ±n": 7826,
      "ĠMev": 7827,
      "ĠRog": 7828,
      "ĠyakÄ±t": 7829,
      "ĠbÃ¶lÃ¼mde": 7830,
      "Ġdurumlarda": 7831,
      "sizlik": 7832,
      "ĠyaÅŁamaktadÄ±r": 7833,
      "ĠÃ¶zerk": 7834,
      "1961": 7835,
      "Ġgrubunun": 7836,
      "Î¹": 7837,
      "ĠHow": 7838,
      "ĠeditÃ¶r": 7839,
      "ustin": 7840,
      "ĠhÃ¼cre": 7841,
      "Ġfestival": 7842,
      "ct": 7843,
      "Ãª": 7844,
      "Ã¼rt": 7845,
      "Ġhatt": 7846,
      "ĠgeliÅŁmiÅŁ": 7847,
      "iskopos": 7848,
      "ulmasÄ±": 7849,
      "ĠÅŁeyi": 7850,
      "Ġtarihte": 7851,
      "Ġeline": 7852,
      "Ġolmaya": 7853,
      "1962": 7854,
      "memektedir": 7855,
      "ĠGenÃ§lik": 7856,
      "lesi": 7857,
      "ĠAdÄ±": 7858,
      "ĠTol": 7859,
      "ĠkarÄ±sÄ±": 7860,
      "ĠsÃ¼rede": 7861,
      "ĠtÄ±r": 7862,
      "Ä±lma": 7863,
      "ĠbaÅŁlÄ±ca": 7864,
      "ĠExp": 7865,
      "ÙĪ": 7866,
      "iber": 7867,
      "ĠkÃ¶yÃ¼n": 7868,
      "ĠDonan": 7869,
      "Ġbayrak": 7870,
      "Ġgrafik": 7871,
      "ĠHik": 7872,
      "ĠsÄ±klÄ±kla": 7873,
      "ahiy": 7874,
      "ĠDÃ¶rt": 7875,
      "Ġdergiler": 7876,
      "ĠeleÅŁtirmen": 7877,
      "ĠstatÃ¼sÃ¼": 7878,
      "Ġedip": 7879,
      "odor": 7880,
      "ĠsÃ¼rÃ¼ldÃ¼": 7881,
      "ĠÄ°ttifak": 7882,
      "WE": 7883,
      "ĠtanÄ±nan": 7884,
      "akta": 7885,
      "ĠRev": 7886,
      "Ġbeklen": 7887,
      "dun": 7888,
      "zan": 7889,
      "Ġarz": 7890,
      "Ġkenar": 7891,
      "ĠkarÅŁÄ±tÄ±": 7892,
      "Ġban": 7893,
      "ston": 7894,
      "ĠbaskÄ±n": 7895,
      "ecep": 7896,
      "ĠAsker": 7897,
      "ĠolacaktÄ±r": 7898,
      "ĠhastalÄ±": 7899,
      "Ġte": 7900,
      "Ġtext": 7901,
      "ĠÃ¼lkelerde": 7902,
      "ĠÃ¶dÃ¼lÃ¼nÃ¼": 7903,
      "nak": 7904,
      "ĠsÄ±n": 7905,
      "itter": 7906,
      "ĠCarl": 7907,
      "ĠOnur": 7908,
      "ĠHill": 7909,
      "ĠCa": 7910,
      "Ġgay": 7911,
      "eyt": 7912,
      "Ġartan": 7913,
      "ĠdoÄŁusunda": 7914,
      "Ġcevap": 7915,
      "ĠgÃ¶rÃ¼ldÃ¼": 7916,
      "Ä°slam": 7917,
      "ÅŁi": 7918,
      "ĠbaÅŁk": 7919,
      "ĠkapÄ±": 7920,
      "Ġdoldur": 7921,
      "ĠBad": 7922,
      "ĠDÃ¼k": 7923,
      "itable": 7924,
      "gÃ¼ne": 7925,
      "Ġanahtar": 7926,
      "Ġakademik": 7927,
      "ĠÃĩanakkale": 7928,
      "ĠartÄ±ÅŁ": 7929,
      "ĠGreen": 7930,
      "ãĥ": 7931,
      "Ġgeomet": 7932,
      "usya": 7933,
      "dirne": 7934,
      "ĠgÃ¶revine": 7935,
      "akam": 7936,
      "ember": 7937,
      "aft": 7938,
      "ebilen": 7939,
      "Ġbulundur": 7940,
      "ĠeÄŁitimini": 7941,
      "Ġdar": 7942,
      "azarÄ±": 7943,
      "ĠtatlÄ±": 7944,
      "And": 7945,
      "eridi": 7946,
      "amonu": 7947,
      "ĠhalkÄ±n": 7948,
      "ĠYoung": 7949,
      "ĠtarafÄ±nda": 7950,
      "bel": 7951,
      "enko": 7952,
      "Ġbirik": 7953,
      "ĠaÃ§Ä±klandÄ±": 7954,
      "ĠSarayÄ±": 7955,
      "ĠJones": 7956,
      "Ġ1917": 7957,
      "Ġtarihlerinde": 7958,
      "ĠaÃ§Ä±dan": 7959,
      "etro": 7960,
      "ansiyon": 7961,
      "Ġuydu": 7962,
      "Ġsuyu": 7963,
      "omer": 7964,
      "ĠtarihÃ§i": 7965,
      "ĠbÃ¼yÃ¼kel": 7966,
      "Ġ1932": 7967,
      "Ġforvet": 7968,
      "amayan": 7969,
      "ĠÃ¼stlendi": 7970,
      "ĠÃ§evresinde": 7971,
      "ĠbaÅŁlangÄ±Ã§ta": 7972,
      "Ġsend": 7973,
      "Ġline": 7974,
      "esiz": 7975,
      "eksas": 7976,
      "ĠeÅŁlik": 7977,
      "Ġcisimleri": 7978,
      "MaÃ§": 7979,
      "isc": 7980,
      "ume": 7981,
      "ĠiÅŁletim": 7982,
      "Ġtaarruz": 7983,
      "ĠStre": 7984,
      "Sar": 7985,
      "Ġoyunun": 7986,
      "ĠParkÄ±": 7987,
      "Ãĩek": 7988,
      "ĠkarÅŁÄ±lÄ±ÄŁÄ±nda": 7989,
      "ĠResmÃ®": 7990,
      "Yunanistan": 7991,
      "IV": 7992,
      "Sa": 7993,
      "ĠOli": 7994,
      "Ġdenet": 7995,
      "Ġkurtul": 7996,
      "ĠScott": 7997,
      "ĠUÃ§": 7998,
      "Ġ...": 7999,
      "PS": 8000,
      "rel": 8001,
      "ĠKarl": 8002,
      "ĠinanÃ§": 8003,
      "Ġnitelendir": 8004,
      "ĠSok": 8005,
      "ĠbuluÅŁ": 8006,
      "arth": 8007,
      "ĠkiÅŁiden": 8008,
      "ĠSeb": 8009,
      "ĠKoÃ§": 8010,
      "ĠgÃ¶rÃ¼nt": 8011,
      "ĠyÃ¼kselt": 8012,
      "Con": 8013,
      "ĠÃ¶zgÃ¼": 8014,
      "Ġrestor": 8015,
      "Sol": 8016,
      "yken": 8017,
      "ĠolasÄ±": 8018,
      "Ġ1912": 8019,
      "ĠRey": 8020,
      "Ġyerleri": 8021,
      "ĠsÃ¼s": 8022,
      "ĠMotor": 8023,
      "ĠGazi": 8024,
      "Ġpaket": 8025,
      "Ġemr": 8026,
      "barat": 8027,
      "Ġcon": 8028,
      "ĠgeÃ§irdiÄŁi": 8029,
      "ĠgeliÅŁim": 8030,
      "ĠÃ¶nÃ¼ne": 8031,
      "Ġstil": 8032,
      "Ġotomatik": 8033,
      "ĠgÃ¶rsel": 8034,
      "giller": 8035,
      "loven": 8036,
      "ÄŁÄ±nÄ±n": 8037,
      "ĠaÃ§Ä±lan": 8038,
      "ĠfÃ¼z": 8039,
      "ĠortasÄ±nda": 8040,
      "ĠkarÄ±ÅŁÄ±k": 8041,
      "ĠmaÃ§a": 8042,
      "akar": 8043,
      "Ġittifak": 8044,
      "deler": 8045,
      "Ġcem": 8046,
      "makla": 8047,
      "Ġolmakla": 8048,
      "ristal": 8049,
      "Teknik": 8050,
      "Ġsenarist": 8051,
      "ĠMass": 8052,
      "ody": 8053,
      "Ġsanayi": 8054,
      "Ġtipik": 8055,
      "aze": 8056,
      "ĠFe": 8057,
      "ĠSum": 8058,
      "dÄ±ÄŁÄ±nÄ±": 8059,
      "ĠtÃ¼rlÃ¼": 8060,
      "ĠsÄ±nÄ±fÄ±": 8061,
      "Ġakr": 8062,
      "low": 8063,
      "zo": 8064,
      "Ġeb": 8065,
      "Ġbundan": 8066,
      "ilerinden": 8067,
      "ojen": 8068,
      "Ã¼bnan": 8069,
      "Å«": 8070,
      "ilerinde": 8071,
      "agn": 8072,
      "ĠdeÄŁiÅŁken": 8073,
      "mik": 8074,
      "adasÄ±": 8075,
      "ĠAltÄ±": 8076,
      "alandÄ±r": 8077,
      "ĠSanatlar": 8078,
      "Ġorganiz": 8079,
      "wikitable": 8080,
      "Kurgusal": 8081,
      "ĠGab": 8082,
      "ĠyazÄ±lmÄ±ÅŁtÄ±r": 8083,
      "ĠÃ§eviri": 8084,
      "ĠApple": 8085,
      "BazÄ±": 8086,
      "Ġ1931": 8087,
      "ĠYunanca": 8088,
      "Ġmaddesi": 8089,
      "ĠSi": 8090,
      "Ġch": 8091,
      "ĠNot": 8092,
      "Ġsisteminin": 8093,
      "izmin": 8094,
      "Ġsporcu": 8095,
      "Ġhaft": 8096,
      "Ġbec": 8097,
      "Ġmavi": 8098,
      "ĠÃ§ekim": 8099,
      "antum": 8100,
      "ĠÃ§evrimi": 8101,
      "Play": 8102,
      "ĠbaÄŁlam": 8103,
      "ido": 8104,
      "ĠBritanyalÄ±": 8105,
      "Bay": 8106,
      "ĠvÃ¼cu": 8107,
      "icial": 8108,
      "ĠtabanlÄ±": 8109,
      "ĠRon": 8110,
      "ĠGod": 8111,
      "Ġbelirgin": 8112,
      "phen": 8113,
      "ĠBBC": 8114,
      "gili": 8115,
      "Yah": 8116,
      "aÄŁÄ±nÄ±": 8117,
      "ĠyazmÄ±ÅŁtÄ±r": 8118,
      "Ġligi": 8119,
      "ĠÃ¶rneÄŁin": 8120,
      "ologlar": 8121,
      "Ġreh": 8122,
      "ĠsayfasÄ±": 8123,
      "BS": 8124,
      "DoÄŁu": 8125,
      "ĠEsp": 8126,
      "Ap": 8127,
      "atya": 8128,
      "Ġseviye": 8129,
      "Ġaray": 8130,
      "ĠtarzÄ±": 8131,
      "ĠYardÄ±mcÄ±": 8132,
      "Ġker": 8133,
      "ĠÅŀu": 8134,
      "ĠaÅŁk": 8135,
      "ĠHanÄ±m": 8136,
      "Ġdet": 8137,
      "Ġsalon": 8138,
      "Ġmensup": 8139,
      "ĠMersin": 8140,
      "Ã¼nc": 8141,
      "ĠyÃ¶nlendir": 8142,
      "Ġdos": 8143,
      "yaf": 8144,
      "lenerek": 8145,
      "Ġzehir": 8146,
      "ĠAlbert": 8147,
      "ĠalbÃ¼mler": 8148,
      "Ġyeten": 8149,
      "ĠFilmin": 8150,
      "ĠvazgeÃ§": 8151,
      "ĠÄ°d": 8152,
      "Ġrep": 8153,
      "ĠyanÄ±na": 8154,
      "Ġcinsiyet": 8155,
      "Ġgalaks": 8156,
      "adis": 8157,
      "Bursa": 8158,
      "ifik": 8159,
      "port": 8160,
      "ĠmaÃ§larÄ±": 8161,
      "ĠeriÅŁim": 8162,
      "ĠTurnuv": 8163,
      "ĠFrancisco": 8164,
      "adel": 8165,
      "Ġmay": 8166,
      "ĠyÃ¼zde": 8167,
      "Ġteknoloji": 8168,
      "Ġ1915": 8169,
      "ĠVas": 8170,
      "ulam": 8171,
      "ĠBut": 8172,
      "ĠBaÅŁbakan": 8173,
      "ĠÅŁunlardÄ±r": 8174,
      "thur": 8175,
      "Paris": 8176,
      "Ġsent": 8177,
      "Ġolumsuz": 8178,
      "lamalar": 8179,
      "Ġekiplerinden": 8180,
      "mesinde": 8181,
      "mud": 8182,
      "eferi": 8183,
      "ĠmÃ¼lk": 8184,
      "ĠSing": 8185,
      "ĠLaz": 8186,
      "ĠgerekÃ§": 8187,
      "Ġmevki": 8188,
      "MÃ¼zik": 8189,
      "hak": 8190,
      "ĠGold": 8191,
      "ĠÄ°h": 8192,
      "1958": 8193,
      "fan": 8194,
      "atur": 8195,
      "ĠyapÄ±lmasÄ±": 8196,
      "ĠhastalÄ±ÄŁÄ±": 8197,
      "Ġprotesto": 8198,
      "Î½": 8199,
      "aven": 8200,
      "ingham": 8201,
      "ĠDoÄŁan": 8202,
      "ĠSayÄ±sÄ±": 8203,
      "ĠfÄ±rlat": 8204,
      "Bar": 8205,
      "ĠtakÄ±mlarÄ±ndan": 8206,
      "Ġkendilerini": 8207,
      "ĠunvanÄ±nÄ±": 8208,
      "Ġkaydetti": 8209,
      "ĠbaÄŁÄ±ÅŁ": 8210,
      "idea": 8211,
      "Ġmaddeler": 8212,
      "ĠkÄ±smen": 8213,
      "ĠCollege": 8214,
      "ÅŁam": 8215,
      "Ġnih": 8216,
      "tÃ¼rÃ¼": 8217,
      "malarÄ±nÄ±": 8218,
      "ĠKÃ¶pr": 8219,
      "ĠKomutanlÄ±ÄŁÄ±": 8220,
      "Rob": 8221,
      "ĠÅŁans": 8222,
      "ĠReal": 8223,
      "ĠBosna": 8224,
      "nel": 8225,
      "Ã¼kem": 8226,
      "ĠkulÃ¼plerinde": 8227,
      "ĠbÃ¼t": 8228,
      "oku": 8229,
      "ĠGÃ¼mÃ¼ÅŁ": 8230,
      "Ġolanak": 8231,
      "Ġsolo": 8232,
      "ĠÃľÃ§Ã¼ncÃ¼": 8233,
      "ĠbÃ¶cek": 8234,
      "Ġrah": 8235,
      "Ġboyu": 8236,
      "ĠunvanÄ±": 8237,
      "Ġderecede": 8238,
      "Ġcen": 8239,
      "Diskografi": 8240,
      "emeye": 8241,
      "ĠAÄŁa": 8242,
      "Ġrekabet": 8243,
      "ĠÃ¶v": 8244,
      "ĠyazÄ±lÄ±": 8245,
      "Ġmerkezinde": 8246,
      "ĠGa": 8247,
      "ayÄ±cÄ±": 8248,
      "ĠiÅŁg": 8249,
      "Ġsekret": 8250,
      "Ġoda": 8251,
      "ĠEmin": 8252,
      "ĠJour": 8253,
      "ĠTimes": 8254,
      "ĠdÃ¼ÅŁÃ¼nÃ¼lmektedir": 8255,
      "ĠSS": 8256,
      "ĠPakistan": 8257,
      "ĠromanÄ±": 8258,
      "ĠolmasÄ±nÄ±": 8259,
      "Arjantin": 8260,
      "Mil": 8261,
      "ĠEb": 8262,
      "ĠyÃ¶netilen": 8263,
      "ĠhazÄ±rlÄ±k": 8264,
      "ĠHelen": 8265,
      "sta": 8266,
      "ĠMahall": 8267,
      "Ok": 8268,
      "indir": 8269,
      "asÄ±z": 8270,
      "ĠLeg": 8271,
      "ĠKardeÅŁ": 8272,
      "Ä±ntÄ±larÄ±": 8273,
      "ĠÃ¶nder": 8274,
      "ĠgeÃ§erek": 8275,
      "agan": 8276,
      "ĠCezayir": 8277,
      "ray": 8278,
      "esun": 8279,
      "Ġterimi": 8280,
      "denin": 8281,
      "ĠSilahlÄ±": 8282,
      "pool": 8283,
      "Ġgruba": 8284,
      "ĠBiy": 8285,
      "ĠÃ§Ä±ktÄ±ÄŁÄ±": 8286,
      "Ġparal": 8287,
      "ĠgÃ¶nderdi": 8288,
      "Ġakademisyen": 8289,
      "ĠHab": 8290,
      "Ġintihar": 8291,
      "ĠbaÅŁkanlÄ±k": 8292,
      "ÃŃa": 8293,
      "FK": 8294,
      "akal": 8295,
      "ĠUzay": 8296,
      "ĠBalÄ±kesir": 8297,
      "Ġevinde": 8298,
      "1959": 8299,
      "ĠhattÄ±": 8300,
      "ĠYerli": 8301,
      "ĠAP": 8302,
      "Ġyenilen": 8303,
      "ĠÃĩaÄŁÄ±": 8304,
      "ĠbakanlarÄ±": 8305,
      "1940": 8306,
      "âĢľ": 8307,
      "Ġcami": 8308,
      "Ġyetenek": 8309,
      "ross": 8310,
      "ĠKatÄ±lÄ±m": 8311,
      "KK": 8312,
      "Kay": 8313,
      "Mich": 8314,
      "ĠBell": 8315,
      "Ġvurg": 8316,
      "ĠkaÃ§Ä±n": 8317,
      "ĠoluÅŁturdu": 8318,
      "ĠHarry": 8319,
      "Pop": 8320,
      "Ä±ntÄ±lÄ±": 8321,
      "ĠSaray": 8322,
      "ĠÅŁÃ¼ph": 8323,
      "cinsel": 8324,
      "opter": 8325,
      "Ġitir": 8326,
      "ĠyarÄ±ÅŁmacÄ±": 8327,
      "ound": 8328,
      "ĠKh": 8329,
      "tron": 8330,
      "ĠdeÄŁiÅŁim": 8331,
      "ĠtanÄ±mlanan": 8332,
      "Ġpotansiyel": 8333,
      "Ġmuhalef": 8334,
      "BaÄŁ": 8335,
      "ayolu": 8336,
      "Ġbirini": 8337,
      "estra": 8338,
      "mara": 8339,
      "Ġ400": 8340,
      "Ġrady": 8341,
      "dÃ¼kten": 8342,
      "ĠAleksan": 8343,
      "AP": 8344,
      "ĠKaradaÄŁ": 8345,
      "Konuyla": 8346,
      "ilecek": 8347,
      "ĠTRT": 8348,
      "ĠbÃ¶lgesel": 8349,
      "1957": 8350,
      "grad": 8351,
      "Ïģ": 8352,
      "Ġgazete": 8353,
      "ABD": 8354,
      "ydu": 8355,
      "ull": 8356,
      "ĠLan": 8357,
      "Ġma": 8358,
      "Ġflor": 8359,
      "ĠOh": 8360,
      "Ġsel": 8361,
      "ĠBet": 8362,
      "Ġkomutan": 8363,
      "ble": 8364,
      "Ġevrim": 8365,
      "Ġbakan": 8366,
      "ĠhayatÄ±na": 8367,
      "ĠSub": 8368,
      "ĠÃī": 8369,
      "ĠLiv": 8370,
      "ĠÃ§Ä±kmÄ±ÅŁ": 8371,
      "1946": 8372,
      "ĠMeg": 8373,
      "ĠBilinmiyor": 8374,
      "orth": 8375,
      "aport": 8376,
      "ista": 8377,
      "ĠÃ¶ncesinde": 8378,
      "helm": 8379,
      "ĠHollandalÄ±": 8380,
      "vard": 8381,
      "ayÄ±k": 8382,
      "ĠEP": 8383,
      "ibe": 8384,
      "ĠiÅŁbirliÄŁi": 8385,
      "bit": 8386,
      "ĠsÃ¶mÃ¼r": 8387,
      "ĠWin": 8388,
      "Ġvil": 8389,
      "Ã¼mr": 8390,
      "Ġkenti": 8391,
      "ĠaynalÄ±": 8392,
      "ĠoluÅŁturduÄŁu": 8393,
      "ĠÃ§oÄŁunluÄŁu": 8394,
      "KÄ±z": 8395,
      "hisar": 8396,
      "reli": 8397,
      "ĠHu": 8398,
      "ĠbÃ¶lgelerde": 8399,
      "ĠCephesi": 8400,
      "Ġuzanan": 8401,
      "ĠLondon": 8402,
      "Ġviz": 8403,
      "lag": 8404,
      "ĠLor": 8405,
      "ĠHalil": 8406,
      "tive": 8407,
      "lÃ©": 8408,
      "ĠSic": 8409,
      "ĠAnne": 8410,
      "ifer": 8411,
      "uÄŁla": 8412,
      "ĠÃ§aÄŁdaÅŁ": 8413,
      "ĠpiÅŁ": 8414,
      "ĠgelmiÅŁ": 8415,
      "ĠatÄ±f": 8416,
      "ĠdÃ¼k": 8417,
      "ĠPi": 8418,
      "ĠGÃ¶n": 8419,
      "ĠnÃ¼fusun": 8420,
      "Ġyerler": 8421,
      "ĠbaÅŁlattÄ±": 8422,
      "zabeth": 8423,
      "ĠBru": 8424,
      "Ġkonus": 8425,
      "ĠgeliÅŁtirme": 8426,
      "Em": 8427,
      "con": 8428,
      "rama": 8429,
      "Ġmilliyet": 8430,
      "ĠManchester": 8431,
      "iral": 8432,
      "ĠHil": 8433,
      "inia": 8434,
      "ĠgÃ¶reve": 8435,
      "Ġ<": 8436,
      "iko": 8437,
      "Ġbirer": 8438,
      "ĠKaynak": 8439,
      "ĠAÅŁaÄŁÄ±": 8440,
      "ĠFizik": 8441,
      "losu": 8442,
      "Ġarama": 8443,
      "Ġhayran": 8444,
      "Ġokuy": 8445,
      "Ġonunla": 8446,
      "Ġelektron": 8447,
      "ĠkÄ±yÄ±sÄ±nda": 8448,
      "ĠKazakistan": 8449,
      "ĠÃ§ekilen": 8450,
      "itif": 8451,
      "eman": 8452,
      "die": 8453,
      "ĠmÃ¼zikal": 8454,
      "ĠÅŁampiyonluÄŁu": 8455,
      "ĠKÃ¼tÃ¼phan": 8456,
      "Bulgar": 8457,
      "TakÄ±m": 8458,
      "eva": 8459,
      "ĠÃ¢": 8460,
      "ĠkanalÄ±": 8461,
      "bach": 8462,
      "eto": 8463,
      "ĠLar": 8464,
      "Ġzam": 8465,
      "ĠbÃ¶lgeleri": 8466,
      "mamaktadÄ±r": 8467,
      "ĠFilip": 8468,
      "ĠesnasÄ±nda": 8469,
      "sc": 8470,
      "Ã§iliÄŁi": 8471,
      "ĠyargÄ±": 8472,
      "ĠiÃ§ermektedir": 8473,
      "ando": 8474,
      "aux": 8475,
      "box": 8476,
      "pat": 8477,
      "ovan": 8478,
      "Ġkemik": 8479,
      "Ġ$": 8480,
      "ĠTeÅŁ": 8481,
      "YÃ¶net": 8482,
      "ĠTes": 8483,
      "Ġkale": 8484,
      "ĠyaÅŁamÄ±ÅŁ": 8485,
      "ĠÃ§alÄ±ÅŁmalarÄ±na": 8486,
      "PGC": 8487,
      "ĠVin": 8488,
      "Ġdergi": 8489,
      "lum": 8490,
      "onna": 8491,
      "ĠNil": 8492,
      "Ġdevletin": 8493,
      "Ġkutsal": 8494,
      "doÄŁusunda": 8495,
      "Ġyirmi": 8496,
      "Meks": 8497,
      "Star": 8498,
      "Ġted": 8499,
      "tions": 8500,
      "ĠgÃ¼reÅŁÃ§i": 8501,
      "incan": 8502,
      "ÄŁur": 8503,
      "ĠÂł": 8504,
      "ĠkomutasÄ±ndaki": 8505,
      "ÃĸdÃ¼ller": 8506,
      "ĠiyileÅŁtir": 8507,
      "ÏĤ": 8508,
      "Ġturda": 8509,
      "Ä°nsan": 8510,
      "Ġbahsed": 8511,
      "itir": 8512,
      "aÅŁÄ±r": 8513,
      "Ä±mlarÄ±": 8514,
      "ĠRep": 8515,
      "Ġyapma": 8516,
      "ĠÃľl": 8517,
      "ĠgÃ¶stermiÅŁtir": 8518,
      "ĠBakÃ¼": 8519,
      "eji": 8520,
      "Ä±lmaz": 8521,
      "ĠCast": 8522,
      "Ġdevre": 8523,
      "ĠKongresi": 8524,
      "Dav": 8525,
      "ĠNin": 8526,
      "ĠÅŀiir": 8527,
      "ĠtanÄ±nÄ±r": 8528,
      "ĠkadÄ±nlarÄ±n": 8529,
      "ĠkÃ¼ltÃ¼rÃ¼": 8530,
      "ĠCambridge": 8531,
      "rul": 8532,
      "Ġfen": 8533,
      "Ġfel": 8534,
      "Ġkonuk": 8535,
      "ĠvarlÄ±k": 8536,
      "ĠdÃ¼zenlendi": 8537,
      "aro": 8538,
      "ĠÃĩÃ¼nkÃ¼": 8539,
      "ĠChris": 8540,
      "20001": 8541,
      "ĠgÃ¼Ã§lendir": 8542,
      "Ġoyunculuk": 8543,
      "Ġgemisi": 8544,
      "ĠÅŀahin": 8545,
      "yth": 8546,
      "ĠKanal": 8547,
      "ĠHaÃ§lÄ±": 8548,
      "ĠAfganistan": 8549,
      "IS": 8550,
      "ĠTÃ¼rkler": 8551,
      "ĠdÄ±ÅŁÄ±ndaki": 8552,
      "ĠChampionship": 8553,
      "ĠSarÄ±": 8554,
      "Ġilham": 8555,
      "Ġzih": 8556,
      "Ġcumhuriyet": 8557,
      "ĠPolonyalÄ±": 8558,
      "ĠYerelnet": 8559,
      "ĠRu": 8560,
      "the": 8561,
      "ĠDergisi": 8562,
      "ĠSchool": 8563,
      "Ġimza": 8564,
      "ĠGenÃ§ler": 8565,
      "Ġdoktora": 8566,
      "Brezilya": 8567,
      "Kor": 8568,
      "Ġpor": 8569,
      "elenek": 8570,
      "ĠKulÃ¼p": 8571,
      "ĠyÃ¶ntemi": 8572,
      "Ġsabah": 8573,
      "ĠOnun": 8574,
      "Ã©n": 8575,
      "ĠÃ¶ykÃ¼": 8576,
      "ĠSk": 8577,
      "Ġlak": 8578,
      "ĠPhilip": 8579,
      "ios": 8580,
      "ÅŁev": 8581,
      "Ġolun": 8582,
      "ĠoluÅŁturmak": 8583,
      "allenin": 8584,
      "mediÄŁi": 8585,
      "ĠGÃ¼Ã§": 8586,
      "rov": 8587,
      "ĠkÄ±yas": 8588,
      "ÑģÐº": 8589,
      "ĠBaz": 8590,
      "ĠeÄŁilim": 8591,
      "ĠÃĸzbek": 8592,
      "Ġromantik": 8593,
      "ekte": 8594,
      "ĠhariÃ§": 8595,
      "ĠÃĩalÄ±ÅŁ": 8596,
      "ahya": 8597,
      "KardeÅŁ": 8598,
      "ĠbasÄ±nÃ§": 8599,
      "Ġblok": 8600,
      "Ġtarihinin": 8601,
      "ilendir": 8602,
      "ĠKu": 8603,
      "Ã¶nÃ¼": 8604,
      "ĠMeydan": 8605,
      "Ġsc": 8606,
      "Ġdey": 8607,
      "emektedir": 8608,
      "Ġcer": 8609,
      "oviÄĩ": 8610,
      "1956": 8611,
      "Ber": 8612,
      "erik": 8613,
      "stem": 8614,
      "ĠHein": 8615,
      "ayeti": 8616,
      "ĠBra": 8617,
      "Antik": 8618,
      "Ġolduktan": 8619,
      "ahi": 8620,
      "Ġyerlerde": 8621,
      "gisini": 8622,
      "Ä±ntÄ±lar": 8623,
      "likler": 8624,
      "ĠhazÄ±rlanan": 8625,
      "ĠÃ§evrimiÃ§i": 8626,
      "ĠKÄ±lÄ±Ã§": 8627,
      "ĠVoleybol": 8628,
      "ĠYÄ±ldÄ±rÄ±m": 8629,
      "MÄ±sÄ±r": 8630,
      "ĠTut": 8631,
      "ĠEuro": 8632,
      "ĠÃ¶zellikler": 8633,
      "umbia": 8634,
      "ĠÃ¶tÃ¼rÃ¼": 8635,
      "ĠWood": 8636,
      "ĠWolf": 8637,
      "ekkÃ¼r": 8638,
      "ĠPot": 8639,
      "ilmiÅŁti": 8640,
      "ĠmarkalarÄ±": 8641,
      "ĠKum": 8642,
      "Ġolsun": 8643,
      "Ġyeter": 8644,
      "ĠFriedrich": 8645,
      "Sen": 8646,
      "ĠGil": 8647,
      "ĠÅŁov": 8648,
      "ĠRh": 8649,
      "ĠÅŁeker": 8650,
      "Ġederler": 8651,
      "ĠÅŁarap": 8652,
      "igan": 8653,
      "ĠoynamaktadÄ±r": 8654,
      "Ġsakin": 8655,
      "ĠanlayÄ±ÅŁ": 8656,
      "yd": 8657,
      "arlÄ±k": 8658,
      "esse": 8659,
      "ĠHÃ¼kÃ»meti": 8660,
      "ĠRoyal": 8661,
      "ĠEge": 8662,
      "uzu": 8663,
      "Ġvergi": 8664,
      "1954": 8665,
      "ĠÃ§alÄ±ÅŁmalarÄ±nÄ±": 8666,
      "Ġnesil": 8667,
      "mosfer": 8668,
      "ĠBÃ¼l": 8669,
      "Ġfer": 8670,
      "ĠKonf": 8671,
      "ĠKudÃ¼s": 8672,
      "oviÃ§": 8673,
      "ĠkÃ¶yÃ¼nde": 8674,
      "ĠÃ¼lkelerin": 8675,
      "Ġfayd": 8676,
      "Ġbaraj": 8677,
      "Ġhab": 8678,
      "ĠNi": 8679,
      "ansu": 8680,
      "ĠsÃ¼rÃ¼mÃ¼": 8681,
      "GenÃ§": 8682,
      "ĠOÄŁuz": 8683,
      "Ġyel": 8684,
      "Ġetkileri": 8685,
      "ĠÅŁarkÄ±nÄ±n": 8686,
      "Ġreaksiyon": 8687,
      "irken": 8688,
      "ĠPir": 8689,
      "Ġco": 8690,
      "Ġvide": 8691,
      "evin": 8692,
      "diÄŁini": 8693,
      "Ġkaybeden": 8694,
      "ÏĦ": 8695,
      "ĠWall": 8696,
      "ĠAnth": 8697,
      "Biz": 8698,
      "oi": 8699,
      "ĠMÃ¼": 8700,
      "Ġfont": 8701,
      "ĠFederal": 8702,
      "Birinci": 8703,
      "Ġemir": 8704,
      "ĠdanÄ±ÅŁman": 8705,
      "ĠKes": 8706,
      "ĠEin": 8707,
      "ĠAllah": 8708,
      "Belde": 8709,
      "024": 8710,
      "mekten": 8711,
      "Ġdisip": 8712,
      "1930": 8713,
      "Ġkoz": 8714,
      "ĠgÃ¶revinden": 8715,
      "ĠAteÅŁ": 8716,
      "Ġbilimkurgu": 8717,
      "encer": 8718,
      "ĠListesi": 8719,
      "Ġsad": 8720,
      "sÃ¼": 8721,
      "esiydi": 8722,
      "ĠaralÄ±k": 8723,
      "ĠlayÄ±k": 8724,
      "ĠÃ§aÄŁÄ±r": 8725,
      "ĠBelediyespor": 8726,
      "ĠÃ§Ã¶zÃ¼n": 8727,
      "kaya": 8728,
      "ĠrÃ¼z": 8729,
      "ĠdÃ¶nen": 8730,
      "ĠsÄ±ÄŁÄ±n": 8731,
      "sy": 8732,
      "onlar": 8733,
      "Ġbirisidir": 8734,
      "ihan": 8735,
      "ĠBM": 8736,
      "ĠDYP": 8737,
      "ĠseÃ§imi": 8738,
      "ĠMaur": 8739,
      "ĠHaber": 8740,
      "uya": 8741,
      "yak": 8742,
      "Ġbina": 8743,
      "onik": 8744,
      "ĠanÄ±t": 8745,
      "ĠkÃ¼tÃ¼phan": 8746,
      "ĠCemiyeti": 8747,
      "ittle": 8748,
      "aboratuvar": 8749,
      "urlar": 8750,
      "ĠÄ°statistik": 8751,
      "KadÄ±nlar": 8752,
      "lÄ±yor": 8753,
      "ĠsavaÅŁÄ±n": 8754,
      "KÄ±r": 8755,
      "ÙĬ": 8756,
      "ĠkiÅŁilerin": 8757,
      "ĠolaylarÄ±": 8758,
      "ĠtartÄ±ÅŁmalar": 8759,
      "Fin": 8760,
      "YarÄ±": 8761,
      "ĠayrÄ±lmÄ±ÅŁtÄ±r": 8762,
      "ĠYugoslavya": 8763,
      "ĠolacaÄŁÄ±nÄ±": 8764,
      "ĠyarÄ±sÄ±nda": 8765,
      "ÅŁÄ±": 8766,
      "ĠbÃ¶lgesinin": 8767,
      "Ġidare": 8768,
      "Kom": 8769,
      "ĠÄ±sÄ±": 8770,
      "Ġsakat": 8771,
      "ĠÃĩel": 8772,
      "Ġokun": 8773,
      "Ġsuyun": 8774,
      "ÃŃn": 8775,
      "ĠHouse": 8776,
      "ĠyapÄ±lmaktadÄ±r": 8777,
      "Ġtoplu": 8778,
      "ĠkazandÄ±ÄŁÄ±": 8779,
      "BatÄ±": 8780,
      "ĠPost": 8781,
      "ĠÃ¶ÄŁrencisi": 8782,
      "ĠOsmanlÄ±lar": 8783,
      "AF": 8784,
      "Ġ1916": 8785,
      "ĠEleÅŁtir": 8786,
      "ĠÅŁehirde": 8787,
      "siniz": 8788,
      "Ġbireysel": 8789,
      "ĠolasÄ±lÄ±k": 8790,
      "Ġyiyecek": 8791,
      "ilerle": 8792,
      "ĠhikÃ¢ye": 8793,
      "ĠYardÄ±mcÄ±sÄ±": 8794,
      "Ã¶ÄŁretim": 8795,
      "ĠSez": 8796,
      "ĠmÃ¼ttefik": 8797,
      "ahisar": 8798,
      "Ġkalit": 8799,
      "ĠParlamentosu": 8800,
      "Ġprotein": 8801,
      "rijinal": 8802,
      "bor": 8803,
      "ĠFen": 8804,
      "ersey": 8805,
      "Ġuyum": 8806,
      "ĠkÄ±smÄ±nda": 8807,
      "ĠbaÅŁvur": 8808,
      "rÃ©": 8809,
      "iser": 8810,
      "ĠuzaklÄ±kta": 8811,
      "ĠgerÃ§ekleÅŁtirildi": 8812,
      "Ð³": 8813,
      "eryal": 8814,
      "ĠSanayi": 8815,
      "ĠÃ¶rneÄŁi": 8816,
      "áĥĶ": 8817,
      "Kitap": 8818,
      "kop": 8819,
      "ĠDair": 8820,
      "ĠHir": 8821,
      "Adana": 8822,
      "oka": 8823,
      "Ġyakalan": 8824,
      "Ġzorunlu": 8825,
      "Ġproje": 8826,
      "Ġenfeksiyon": 8827,
      "ĠbaÅŁÄ±": 8828,
      "Ġkoordin": 8829,
      "Ġdarbe": 8830,
      "Ġhaz": 8831,
      "ĠDub": 8832,
      "Ä°r": 8833,
      "ĠÃ¶t": 8834,
      "oman": 8835,
      "ĠKong": 8836,
      "Arka": 8837,
      "Ġgiyen": 8838,
      "Mon": 8839,
      "Ã§ilerin": 8840,
      "ĠarkadaÅŁlarÄ±": 8841,
      "ĠkÄ±smÄ±nÄ±": 8842,
      "Ġmanyetik": 8843,
      "ĠHÄ±rvatistan": 8844,
      "ĠOkyanusu": 8845,
      "ĠTasar": 8846,
      "raft": 8847,
      "ĠÅŁiddetli": 8848,
      "ĠBlo": 8849,
      "Ġsahil": 8850,
      "ĠoluÅŁuyordu": 8851,
      "Ġtaban": 8852,
      "Ġdolu": 8853,
      "itr": 8854,
      "eytin": 8855,
      "ĠbaÄŁÄ±m": 8856,
      "Ġbulunmayan": 8857,
      "Ġyenerek": 8858,
      "ĠkomÅŁu": 8859,
      "kon": 8860,
      "rut": 8861,
      "ĠPor": 8862,
      "ĠYarÄ±": 8863,
      "ĠVietnam": 8864,
      "ĠAnna": 8865,
      "ĠmÃ¼zisyenler": 8866,
      "ĠSn": 8867,
      "ĠHun": 8868,
      "Ġyerinde": 8869,
      "ĠrolÃ¼nÃ¼": 8870,
      "Ġnitelik": 8871,
      "Ġsergilen": 8872,
      "CO": 8873,
      "GeÃ§": 8874,
      "ister": 8875,
      "ĠUm": 8876,
      "ragon": 8877,
      "Sel": 8878,
      "NAP": 8879,
      "ĠKosova": 8880,
      "gir": 8881,
      "ĠBeh": 8882,
      "ĠcoÄŁrafi": 8883,
      "ĠBundan": 8884,
      "azÄ±ÄŁ": 8885,
      "ĠSand": 8886,
      "Ġgenelinde": 8887,
      "ĠPremier": 8888,
      "ĠKoleji": 8889,
      "cast": 8890,
      "ÙĨ": 8891,
      "Ġkalab": 8892,
      "lig": 8893,
      "abilirler": 8894,
      "ĠSaadet": 8895,
      "Char": 8896,
      "ĠHac": 8897,
      "Ã¼lÃ¼r": 8898,
      "iff": 8899,
      "Ġasla": 8900,
      "acaktÄ±": 8901,
      "ĠaÄŁÄ±rlÄ±k": 8902,
      "ĠkuruluÅŁlar": 8903,
      "MA": 8904,
      "ĠTemsil": 8905,
      "Ġduygu": 8906,
      "Ġtakdir": 8907,
      "Roma": 8908,
      "lerdeki": 8909,
      "ĠAmatÃ¶r": 8910,
      "leks": 8911,
      "ĠbaÄŁlantÄ±lÄ±": 8912,
      "ĠkarÅŁÄ±lan": 8913,
      "Ġkarakterini": 8914,
      "ĠbugÃ¼nkÃ¼": 8915,
      "emedi": 8916,
      "eysel": 8917,
      "ĠEdirne": 8918,
      "general": 8919,
      "ĠKastamonu": 8920,
      "Ã¼kemmel": 8921,
      "yanÄ±": 8922,
      "Ġbana": 8923,
      "Ä±lÄ±ÅŁ": 8924,
      "1920": 8925,
      "lemiÅŁtir": 8926,
      "ĠgÃ¶sterime": 8927,
      "Ġaskerleri": 8928,
      "ĠhÃ¢l": 8929,
      "YarÄ±ÅŁ": 8930,
      "meli": 8931,
      "ikat": 8932,
      "ĠÃĸzerk": 8933,
      "Â»": 8934,
      "etiyle": 8935,
      "ĠBus": 8936,
      "ĠHit": 8937,
      "ĠaylÄ±k": 8938,
      "ĠKonser": 8939,
      "luÄŁa": 8940,
      "CI": 8941,
      "ĠRuh": 8942,
      "ĠVi": 8943,
      "ĠÃ¶zgÃ¼n": 8944,
      "ĠOrgan": 8945,
      "ĠSonr": 8946,
      "Ġmargin": 8947,
      "Ġfelsefe": 8948,
      "sas": 8949,
      "Ġklav": 8950,
      "ĠNar": 8951,
      "ĠdaÄŁÄ±lÄ±mÄ±": 8952,
      "ilesi": 8953,
      "ĠadÄ±nÄ±n": 8954,
      "Ġ''": 8955,
      "luÄŁun": 8956,
      "Ġkriz": 8957,
      "amamÄ±ÅŁtÄ±r": 8958,
      "ĠSSCB": 8959,
      "Ġsendrom": 8960,
      "Ġtarihindeki": 8961,
      "Ġservis": 8962,
      "ĠkitabÄ±nda": 8963,
      "lamalarÄ±": 8964,
      "ĠSonra": 8965,
      "ĠCarol": 8966,
      "work": 8967,
      "tÄ±cÄ±": 8968,
      "ĠÃ¶lÃ§ek": 8969,
      "ĠAslan": 8970,
      "Ġedebilir": 8971,
      "ĠMcC": 8972,
      "Ġseslendirme": 8973,
      "rugu": 8974,
      "ĠBrit": 8975,
      "Ñĩ": 8976,
      "Ġkonferans": 8977,
      "Ġturu": 8978,
      "ĠyardÄ±mÄ±yla": 8979,
      "ĠtasarÄ±mÄ±": 8980,
      "ĠSP": 8981,
      "ĠbÃ¶lgedeki": 8982,
      "gÄ±t": 8983,
      "Ġbot": 8984,
      "edisi": 8985,
      "indedir": 8986,
      "Ã¼ller": 8987,
      "erkan": 8988,
      "Ġtepki": 8989,
      "ĠSib": 8990,
      "ĠsayÄ±labilir": 8991,
      "ĠyayÄ±mladÄ±": 8992,
      "Ġkutusu": 8993,
      "zat": 8994,
      "Ġetmeyi": 8995,
      "ĠkÃ¶pek": 8996,
      "ĠProfesyonel": 8997,
      "Ġayaklan": 8998,
      "ĠTatar": 8999,
      "Ġ(,": 9000,
      "eygam": 9001,
      "Ġporn": 9002,
      "ĠJe": 9003,
      "ĠÃĸÄŁren": 9004,
      "1955": 9005,
      "ĠyÃ¼rÃ¼r": 9006,
      "ĠAndroid": 9007,
      "SÃ¶z": 9008,
      "olas": 9009,
      "Ġkuram": 9010,
      "ĠÃĩÄ±k": 9011,
      "Ġteker": 9012,
      "eygamber": 9013,
      "Orhan": 9014,
      "YapÄ±m": 9015,
      "fl": 9016,
      "Ġdenilen": 9017,
      "ĠgÃ¶rÃ¼nÃ¼m": 9018,
      "Ä±lmasÄ±yla": 9019,
      "ĠPictures": 9020,
      "ende": 9021,
      "ĠarÅŁiv": 9022,
      "Ġyetersiz": 9023,
      "ĠhÄ±zÄ±": 9024,
      "erse": 9025,
      "odes": 9026,
      "Ġondan": 9027,
      "achus": 9028,
      "Ġmaliyet": 9029,
      "ĠYazÄ±": 9030,
      "Ġnis": 9031,
      "Ġbilgileri": 9032,
      "Ġmezunu": 9033,
      "Ġekonomi": 9034,
      "ĠsorunlarÄ±": 9035,
      "Ġsitesinde": 9036,
      "oe": 9037,
      "oon": 9038,
      "ĠÃ§ub": 9039,
      "ĠÃ§ocuÄŁ": 9040,
      "atus": 9041,
      "ĠRÄ±za": 9042,
      "ĠNam": 9043,
      "likte": 9044,
      "ĠÄ°skoÃ§ya": 9045,
      "ĠErn": 9046,
      "dev": 9047,
      "ebir": 9048,
      "ĠBelarus": 9049,
      "ĠKayseri": 9050,
      "lamaktadÄ±r": 9051,
      "ĠÃ¶lÃ¼": 9052,
      "1953": 9053,
      "ĠdeÄŁiÅŁtirildi": 9054,
      "tanÄ±n": 9055,
      "ĠkomÃ¼nist": 9056,
      "Hollanda": 9057,
      "ĠyÃ¶rÃ¼ng": 9058,
      "ÑĮ": 9059,
      "Ġiyon": 9060,
      "ĠMarc": 9061,
      "ĠyapÄ±ldÄ±ÄŁÄ±": 9062,
      "ĠkapsamlÄ±": 9063,
      "ĠAugust": 9064,
      "Ġmimari": 9065,
      "ilmeye": 9066,
      "ĠkazÄ±": 9067,
      "ĠOranÄ±": 9068,
      "gÃ¼nÃ¼mÃ¼z": 9069,
      "Ġ(%": 9070,
      "ĠHÃ¼r": 9071,
      "Ġ1913": 9072,
      "height": 9073,
      "Ġkurt": 9074,
      "ĠMars": 9075,
      "ĠuÃ§aÄŁÄ±": 9076,
      "Ġunut": 9077,
      "ĠYapÄ±m": 9078,
      "ĠinsanÄ±n": 9079,
      "Ġaskerler": 9080,
      "ĠvarlÄ±ÄŁÄ±nÄ±": 9081,
      "ĠbÃ¶lgelerinde": 9082,
      "ĠparÃ§alarÄ±": 9083,
      "onsor": 9084,
      "Britan": 9085,
      "Ġmor": 9086,
      "ukur": 9087,
      "Ġesin": 9088,
      "Ġaktris": 9089,
      "ĠÃľniversite": 9090,
      "anlÄ±ur": 9091,
      "eller": 9092,
      "ĠÃ¶ngÃ¶r": 9093,
      "Madalya": 9094,
      "Ġikna": 9095,
      "elenen": 9096,
      "ĠManisa": 9097,
      "Ġsip": 9098,
      "Ġdilinde": 9099,
      "FI": 9100,
      "Tube": 9101,
      "ĠGÃ¼nÃ¼": 9102,
      "1952": 9103,
      "Ã¨re": 9104,
      "ĠyumuÅŁ": 9105,
      "cÄ±lÄ±ÄŁÄ±nÄ±": 9106,
      "tuk": 9107,
      "ĠLang": 9108,
      "Ġhizmete": 9109,
      "ĠReich": 9110,
      "Tok": 9111,
      "Å¾": 9112,
      "inus": 9113,
      "ayol": 9114,
      "Ġbulut": 9115,
      "eÅŁitli": 9116,
      "Ġkaynaklar": 9117,
      "ĠbahÃ§": 9118,
      "ĠGroup": 9119,
      "Ġsh": 9120,
      "Ġdizinin": 9121,
      "ĠayrÄ±m": 9122,
      "ĠdeÄŁerli": 9123,
      "ĠPerforman": 9124,
      "nat": 9125,
      "ÄŁinin": 9126,
      "ĠAnti": 9127,
      "ĠsavaÅŁa": 9128,
      "Ġoym": 9129,
      "Ġkadrosu": 9130,
      "Ã¢z": 9131,
      "Polonya": 9132,
      "YayÄ±n": 9133,
      "alanÄ±": 9134,
      "ĠanÄ±": 9135,
      "ĠyÃ¶netmenleri": 9136,
      "Ġboyutlu": 9137,
      "ĠHerschel": 9138,
      "gÄ±z": 9139,
      "Ä°Ã§": 9140,
      "luklarÄ±": 9141,
      "soci": 9142,
      "De": 9143,
      "Ġlistesine": 9144,
      "caÄŁÄ±": 9145,
      "amÄ±ÅŁ": 9146,
      "Antalya": 9147,
      "ĠÄ°Ã§iÅŁleri": 9148,
      "ste": 9149,
      "ĠsÃ¶ylen": 9150,
      "ĠulaÅŁan": 9151,
      "ĠBunlarÄ±n": 9152,
      "Ø§ÙĦ": 9153,
      "ĠVladimir": 9154,
      "02433": 9155,
      "Ġmus": 9156,
      "Ġfesh": 9157,
      "ĠyarÄ±ÅŁÄ±": 9158,
      "ĠÄ°ÅŁlet": 9159,
      "ĠErkekler": 9160,
      "ĠTunus": 9161,
      "ĠgÄ±da": 9162,
      "ĠTown": 9163,
      "ĠEver": 9164,
      "Ãľlk": 9165,
      "Ġdokun": 9166,
      "lywood": 9167,
      "Ġkapsayan": 9168,
      "nolog": 9169,
      "ĠTev": 9170,
      "Ġzamanla": 9171,
      "oruma": 9172,
      "ĠformasÄ±": 9173,
      "ĠKÃ¼re": 9174,
      "ĠGerÃ§ek": 9175,
      "olo": 9176,
      "elly": 9177,
      "eÄŁin": 9178,
      "ĠDVD": 9179,
      "ĠGood": 9180,
      "ĠpadiÅŁah": 9181,
      "Ã¶ly": 9182,
      "ĠkarÅŁÄ±ya": 9183,
      "ĠyakÄ±nlarÄ±ndaki": 9184,
      "emix": 9185,
      "Yay": 9186,
      "ĠSuudi": 9187,
      "ĠaÃ§Ä±lÄ±ÅŁ": 9188,
      "ĠgÃ¶sterilmiÅŁtir": 9189,
      "ĠkÄ±yaf": 9190,
      "tanÄ±": 9191,
      "uar": 9192,
      "ĠalÄ±yor": 9193,
      "ĠÅŀeyh": 9194,
      "Macaristan": 9195,
      "hard": 9196,
      "akes": 9197,
      "ĠbaÅŁlayarak": 9198,
      "ĠuzunluÄŁunda": 9199,
      "Ġmezhe": 9200,
      "ĠHakk": 9201,
      "ĠbeÄŁen": 9202,
      "Be": 9203,
      "Haz": 9204,
      "ĠIÅŁÄ±k": 9205,
      "Ġgirer": 9206,
      "ĠPolis": 9207,
      "ĠGalerisi": 9208,
      "oca": 9209,
      "ĠAla": 9210,
      "ĠAward": 9211,
      "ĠBoston": 9212,
      "ĠBilgi": 9213,
      "ĠtanÄ±nmÄ±ÅŁ": 9214,
      "oke": 9215,
      "ĠiÅŁÃ§i": 9216,
      "entbol": 9217,
      "ĠuÄŁram": 9218,
      "ĠdoÄŁrult": 9219,
      "itika": 9220,
      "ĠElizabeth": 9221,
      "ĠÃĸrgÃ¼tÃ¼": 9222,
      "ĠNer": 9223,
      "ĠkuruluÅŁu": 9224,
      "Oyuncu": 9225,
      "Bal": 9226,
      "ĠBang": 9227,
      "ĠLand": 9228,
      "ĠFox": 9229,
      "Ġuf": 9230,
      "ĠkurduÄŁu": 9231,
      "ĠoÄŁl": 9232,
      "yen": 9233,
      "Ġ),": 9234,
      "asp": 9235,
      "Ġfe": 9236,
      "ĠkaldÄ±ÄŁÄ±": 9237,
      "ĠaÃ§Ä±kÃ§a": 9238,
      "Ġfikr": 9239,
      "Ġbeden": 9240,
      "ĠBest": 9241,
      "ĠSÄ±nÄ±f": 9242,
      "ĠEth": 9243,
      "kate": 9244,
      "larÄ±dÄ±r": 9245,
      "Ġvalisi": 9246,
      "ĠÃ¶ldÃ¼rdÃ¼": 9247,
      "ĠsanatÃ§Ä±lar": 9248,
      "ĠtanÄ±tÄ±lan": 9249,
      "ĠyaÅŁÄ±ndaki": 9250,
      "ĠKullan": 9251,
      "KiÅŁisel": 9252,
      "ĠANAP": 9253,
      "ĠÃ¼cretsiz": 9254,
      "-),": 9255,
      "FenerbahÃ§e": 9256,
      "Mel": 9257,
      "ĠAskeri": 9258,
      "Ġgetiren": 9259,
      "ĠkalÄ±cÄ±": 9260,
      "ĠMahallesi": 9261,
      "Kemal": 9262,
      "vador": 9263,
      "ĠLew": 9264,
      "1948": 9265,
      "ĠyaÄŁÄ±ÅŁ": 9266,
      "He": 9267,
      "ĠHad": 9268,
      "ĠHum": 9269,
      "ingen": 9270,
      "mamasÄ±": 9271,
      "ĠbileÅŁen": 9272,
      "dum": 9273,
      "ĠayÄ±": 9274,
      "ĠaltÄ±ncÄ±": 9275,
      "anus": 9276,
      "ult": 9277,
      "kareler": 9278,
      "ĠbÃ¼yÃ¼m": 9279,
      "eneÄŁi": 9280,
      "ĠÄ°lÃ§e": 9281,
      "ĠSistemi": 9282,
      "Ġreddetti": 9283,
[...]
